[PAD]	0
[UNK]	0
[BOS]	0
[EOS]	0
[SEP]	0
[CLS]	0
[MASK]	0
▁.	-0
세요	-1
▁사	-2
▁좋	-3
▁있	-4
▁이	-5
▁거	-6
▁?	-7
하는	-8
보세요	-9
▁그	-10
▁나	-11
▁아	-12
예요	-13
▁마	-14
▁사람	-15
▁좋아	-16
어요	-17
▁같	-18
▁거예요	-19
▁하	-20
▁생	-21
▁다	-22
▁어	-23
▁가	-24
▁안	-25
▁해	-26
▁수	-27
▁사랑	-28
네요	-29
▁연	-30
▁없	-31
니다	-32
▁생각	-33
▁자	-34
▁잘	-35
▁힘	-36
친구	-37
▁싶	-38
▁여	-39
봐요	-40
▁너	-41
▁많	-42
▁말	-43
▁만	-44
▁남	-45
▁것	-46
▁시	-47
는데	-48
▁내	-49
▁마음	-50
▁않	-51
▁너무	-52
아요	-53
▁기	-54
▁보	-55
▁오	-56
▁지	-57
▁바	-58
▁좋아하는	-59
▁더	-60
해보세요	-61
▁이별	-62
▁정	-63
▁연락	-64
▁헤	-65
하고	-66
▁일	-67
▁헤어	-68
▁짝	-69
▁있을	-70
▁고	-71
▁썸	-72
▁여자	-73
▁남자	-74
으면	-75
▁되	-76
▁힘들	-77
▁좋은	-78
▁모	-79
▁한	-80
나봐요	-81
▁알	-82
하지	-83
▁많이	-84
▁시간	-85
▁게	-86
▁사람이	-87
▁때	-88
▁상	-89
에요	-90
▁저	-91
으로	-92
▁무	-93
▁못	-94
▁친구	-95
▁건	-96
한테	-97
에서	-98
▁전	-99
▁주	-100
▁먹	-101
▁좀	-102
▁중	-103
▁!	-104
▁결	-105
해요	-106
▁같아요	-107
까요	-108
겠어요	-109
▁부	-110
▁있어요	-111
▁싶어	-112
▁인	-113
▁대	-114
▁살	-115
▁조	-116
▁당	-117
▁받	-118
▁뭐	-119
하면	-120
▁선	-121
▁제	-122
▁될	-123
▁후	-124
▁오늘	-125
▁같아	-126
▁만나	-127
▁할	-128
하세요	-129
이에요	-130
하게	-131
▁괜	-132
▁걸	-133
▁끝	-134
겠네요	-135
주세요	-136
▁자신	-137
▁미	-138
▁소	-139
▁진	-140
에게	-141
▁이제	-142
▁드	-143
겠지	-144
▁들	-145
▁좋을	-146
습니다	-147
▁아니	-148
▁괜찮	-149
▁마세요	-150
▁필	-151
라고	-152
▁잊	-153
▁감	-154
▁있는	-155
▁마음이	-156
▁하는	-157
▁연애	-158
▁비	-159
게요	-160
▁내가	-161
▁필요	-162
친구가	-163
는게	-164
▁해보세요	-165
▁혼	-166
▁스	-167
▁왜	-168
▁모르	-169
▁공	-170
다면	-171
▁어떻	-172
▁예	-173
▁차	-174
▁집	-175
▁다른	-176
가봐요	-177
▁타	-178
▁행	-179
▁어떻게	-180
▁물	-181
▁짝남	-182
▁시간이	-183
▁헤어진	-184
▁날	-185
▁돼	-186
다고	-187
▁서	-188
▁신	-189
▁없어	-190
▁도	-191
▁애	-192
▁당신	-193
겠어	-194
해도	-195
▁방	-196
▁싶다	-197
겠죠	-198
▁관	-199
▁우	-200
▁다시	-201
사랑	-202
▁혼자	-203
▁했	-204
▁맞	-205
▁있어	-206
▁눈	-207
인데	-208
▁하고	-209
▁또	-210
▁결혼	-211
▁정말	-212
들이	-213
▁지금	-214
▁정리	-215
▁노	-216
▁잠	-217
▁수도	-218
▁재	-219
▁기다	-220
▁찾	-221
▁싫	-222
▁계	-223
▁중요	-224
▁참	-225
▁새	-226
▁그런	-227
▁준	-228
야지	-229
이네요	-230
할까	-231
▁행복	-232
▁조금	-233
▁따	-234
▁편	-235
▁확	-236
▁같이	-237
어보세요	-238
▁데	-239
▁위	-240
렇게	-241
▁것도	-242
▁놀	-243
▁언	-244
은데	-245
▁고민	-246
▁얼	-247
라요	-248
▁아직	-249
▁쉬	-250
▁추	-251
▁두	-252
▁피	-253
▁짝사랑	-254
▁반	-255
▁먼	-256
▁의	-257
이라	-258
▁자꾸	-259
▁달	-260
▁성	-261
지만	-262
지도	-263
▁준비	-264
보다	-265
▁선물	-266
▁찾아	-267
▁배	-268
▁아무	-269
▁힘든	-270
▁누	-271
▁화	-272
▁보고	-273
합니다	-274
▁느	-275
▁저도	-276
▁변	-277
볼까	-278
▁고백	-279
▁없어요	-280
▁술	-281
까지	-282
야기	-283
이죠	-284
▁짝녀	-285
거예요	-286
▁맛	-287
▁바랄	-288
니까요	-289
▁카	-290
▁그럴	-291
겠다	-292
▁진짜	-293
▁후회	-294
▁꿈	-295
▁몰	-296
▁운	-297
을까	-298
▁먼저	-299
▁서로	-300
▁바랄게요	-301
해서	-302
▁없는	-303
▁충	-304
▁제가	-305
▁돼요	-306
▁방법	-307
▁사귀	-308
봅니다	-309
▁이야기	-310
▁심	-311
▁적	-312
▁문	-313
해야	-314
▁헤어지	-315
▁직	-316
▁시작	-317
▁동	-318
▁헤어진지	-319
▁불	-320
▁들어	-321
▁귀	-322
▁돌	-323
▁해야	-324
▁있을까	-325
▁올	-326
에는	-327
▁그녀	-328
▁하나	-329
▁답	-330
이야	-331
인가	-332
▁계속	-333
▁일이	-334
▁나를	-335
▁받아	-336
▁아닌	-337
▁좋아요	-338
▁버	-339
▁줄	-340
▁공부	-341
해주세요	-342
▁1	-343
▁매	-344
▁감정	-345
▁사랑이	-346
▁마음을	-347
이트	-348
▁가능	-349
▁될까	-350
▁보세요	-351
▁왔	-352
▁기분	-353
▁여자친구가	-354
▁먹고	-355
려고	-356
▁힘드	-357
▁남자친구가	-358
▁돈	-359
기가	-360
면서	-361
보는	-362
▁만들	-363
랍니다	-364
▁여자친구	-365
▁현	-366
▁실	-367
▁회	-368
대로	-369
했어	-370
▁드세요	-371
▁않아요	-372
▁하세요	-373
▁떨	-374
▁신경	-375
▁이상	-376
다는	-377
▁좋죠	-378
▁곳	-379
▁세	-380
▁쓰	-381
리는	-382
지는	-383
▁하루	-384
▁간	-385
니까	-386
▁많은	-387
▁하지	-388
▁걱	-389
▁머	-390
자고	-391
하기	-392
▁걱정	-393
▁떠	-394
▁믿	-395
▁알아	-396
▁속	-397
▁취	-398
▁함	-399
▁싫어	-400
입니다	-401
▁바랍니다	-402
▁원	-403
나요	-404
▁상대	-405
▁분	-406
▁표	-407
하는게	-408
▁영	-409
▁그래	-410
▁사랑하는	-411
▁관심	-412
▁기억	-413
▁힘들어	-414
▁쉽	-415
▁해요	-416
▁데이트	-417
▁,	-418
▁남자친구	-419
적인	-420
▁상처	-421
▁생각해요	-422
▁말해보세요	-423
▁맘	-424
▁장	-425
▁커	-426
이랑	-427
▁언제	-428
▁축	-429
로운	-430
스러	-431
▁뭘	-432
▁입	-433
▁맛있	-434
▁어떨	-435
▁여행	-436
▁충분	-437
▁좋겠어요	-438
다가	-439
하죠	-440
▁무슨	-441
▁어떤	-442
▁있었	-443
▁앞	-444
▁엄	-445
▁용	-446
▁학	-447
▁있으면	-448
▁친구가	-449
▁외	-450
▁최	-451
이었	-452
텐데	-453
▁그냥	-454
▁대화	-455
▁카톡	-456
▁할까	-457
▁함께	-458
▁사람은	-459
▁2	-460
▁구	-461
인지	-462
▁않는	-463
▁이렇게	-464
▁발	-465
부터	-466
▁나만	-467
▁물어	-468
▁안돼	-469
▁헤어졌	-470
▁3	-471
▁놓	-472
▁슬	-473
▁싸	-474
▁요	-475
▁오래	-476
▁약	-477
하네	-478
▁내일	-479
▁누구	-480
▁않을	-481
▁표현	-482
▁몰라요	-483
▁힘드네	-484
▁머리	-485
▁이해	-486
▁궁	-487
▁열	-488
▁점	-489
라도	-490
▁여친	-491
▁전화	-492
겠지만	-493
▁자신을	-494
▁과	-495
가는	-496
▁사랑은	-497
▁길	-498
리고	-499
▁결정	-500
▁궁금	-501
▁많아	-502
▁운동	-503
▁이유	-504
▁하면	-505
▁됐	-506
▁설	-507
▁어디	-508
▁사람을	-509
▁새로운	-510
▁듯	-511
▁별	-512
▁호	-513
기도	-514
트레	-515
▁선택	-516
▁아프	-517
▁한달	-518
▁어떨까요	-519
▁늦	-520
▁단	-521
▁즐	-522
▁처	-523
▁돌아	-524
▁부담	-525
▁썸남	-526
▁스트레	-527
▁있는데	-528
▁생각해보세요	-529
▁복	-530
했던	-531
▁미련	-532
▁안되	-533
▁주세요	-534
▁깨	-535
▁치	-536
어도	-537
▁생겼	-538
▁해도	-539
▁잡	-540
▁타는	-541
▁회사	-542
▁나한테	-543
▁죽	-544
▁노력	-545
▁말고	-546
▁유	-547
▁챙	-548
▁첫	-549
개월	-550
었어	-551
해주	-552
▁보내	-553
▁직접	-554
▁아니에요	-555
거나	-556
나봐	-557
▁가고	-558
▁그만	-559
▁다가	-560
▁따라	-561
▁만큼	-562
▁생각나	-563
▁순	-564
▁질	-565
▁때문	-566
▁않아	-567
▁인연	-568
▁지나	-569
았는데	-570
▁생각이	-571
▁연락이	-572
▁좋겠네요	-573
▁갈	-574
▁막	-575
▁번	-576
▁벌	-577
▁와	-578
▁휴	-579
처럼	-580
▁그러	-581
▁싶은	-582
▁어떡	-583
▁생각을	-584
움이	-585
이나	-586
▁만날	-587
▁않았	-588
▁이젠	-589
▁재미	-590
▁갑	-591
▁경	-592
▁멋	-593
▁항	-594
군요	-595
▁그게	-596
▁소개	-597
▁어려	-598
▁항상	-599
으세요	-600
▁같은데	-601
▁괜찮아	-602
▁신경쓰	-603
▁이별을	-604
나봅니다	-605
▁스트레스	-606
가요	-607
해지	-608
▁남친	-609
▁쉽지	-610
▁인생	-611
▁잘못	-612
▁저는	-613
▁그렇게	-614
▁마음에	-615
▁짝남이	-616
▁완	-617
▁허	-618
▁문제	-619
▁아파	-620
▁조심	-621
적으로	-622
기를	-623
보고	-624
▁같은	-625
▁노래	-626
▁처음	-627
했는데	-628
▁바라요	-629
▁좋겠다	-630
인가봐요	-631
▁모르겠어	-632
▁몸	-633
▁봐	-634
▁붙	-635
거라	-636
어나	-637
▁느낌	-638
▁상황	-639
▁어때	-640
하네요	-641
하는데	-642
▁난	-643
하다	-644
▁때가	-645
▁우리	-646
리세요	-647
려보세요	-648
▁볼	-649
는지	-650
졌어	-651
▁나이	-652
▁달라	-653
▁만났	-654
▁변화	-655
▁축하	-656
▁중요한	-657
▁찾아보세요	-658
▁개	-659
▁꼭	-660
▁넘	-661
▁덜	-662
▁목	-663
▁손	-664
▁웃	-665
▁천	-666
▁크	-667
스럽	-668
습관	-669
▁확실	-670
▁사랑을	-671
▁결국	-672
▁답답	-673
▁위로	-674
▁챙겨	-675
▁추억	-676
▁화장	-677
▁이별은	-678
▁가보세요	-679
▁빠	-680
▁큰	-681
▁가는	-682
▁기대	-683
▁나는	-684
▁다음	-685
▁말을	-686
▁현실	-687
▁생각해	-688
▁괜찮아요	-689
▁포	-690
▁말씀	-691
▁사이	-692
▁세상	-693
▁영화	-694
▁요즘	-695
▁잊어	-696
▁힘내	-697
▁좋겠어	-698
▁충분히	-699
▁절	-700
▁친	-701
▁그렇	-702
▁대화를	-703
▁도움이	-704
▁사랑한	-705
▁태	-706
▁환	-707
▁흘	-708
감이	-709
는거	-710
만에	-711
심히	-712
지막	-713
지요	-714
▁의미	-715
▁있죠	-716
▁아직도	-717
▁여자애	-718
▁열심히	-719
▁물어보세요	-720
▁뭔	-721
▁풀	-722
걸까	-723
동안	-724
싶어	-725
았어	-726
이네	-727
▁가져	-728
▁가지	-729
▁않은	-730
▁언젠	-731
▁추천	-732
▁확인	-733
▁마음의	-734
▁마지막	-735
▁연락을	-736
▁좋을까	-737
▁밥	-738
▁종	-739
▁청	-740
것도	-741
보면	-742
▁말해	-743
▁먹어	-744
▁아침	-745
▁얼른	-746
▁정신	-747
▁집에	-748
이라도	-749
▁말아요	-750
▁싶은데	-751
▁식	-752
▁짜	-753
▁가슴	-754
▁건강	-755
▁관계	-756
▁나쁜	-757
▁만남	-758
▁부모	-759
▁습관	-760
▁어제	-761
▁때문에	-762
▁사랑의	-763
▁상대방	-764
▁시간을	-765
▁오늘도	-766
▁연락해보세요	-767
▁뿐	-768
▁울	-769
▁키	-770
▁평	-771
라면	-772
워요	-773
일까	-774
▁되었	-775
▁매일	-776
▁짝녀가	-777
▁헤어짐	-778
으니까요	-779
한가봐요	-780
▁금	-781
▁된	-782
▁몇	-783
▁솔	-784
▁프	-785
▁핸	-786
사람	-787
▁가장	-788
▁귀찮	-789
▁그리	-790
▁다르	-791
▁살고	-792
▁어느	-793
▁완전	-794
▁이런	-795
▁재회	-796
▁남자애	-797
▁당신의	-798
▁부모님	-799
▁조금만	-800
했나봐요	-801
▁있나봐요	-802
▁긴	-803
▁빨	-804
▁온	-805
▁졸	-806
▁티	-807
자기	-808
▁나가	-809
▁떨어	-810
▁바람	-811
▁아닐	-812
▁제일	-813
▁커피	-814
▁핸드	-815
릴게요	-816
▁조금씩	-817
▁해볼까	-818
▁헤어지고	-819
▁딱	-820
▁잔	-821
▁착	-822
감을	-823
신이	-824
▁대한	-825
▁못하	-826
▁알려	-827
▁얼마	-828
▁진심	-829
하면서	-830
▁남자가	-831
▁사람들	-832
▁오세요	-833
▁좋아하	-834
▁로	-835
▁작	-836
▁존	-837
▁통	-838
더니	-839
리가	-840
한지	-841
▁같애	-842
▁거라	-843
▁많았	-844
▁모든	-845
▁성공	-846
▁순간	-847
▁자연	-848
▁잘할	-849
▁그래도	-850
▁기다리	-851
▁핸드폰	-852
▁글	-853
▁꾸	-854
▁초	-855
▁파	-856
스로	-857
▁맞는	-858
▁살아	-859
▁엄마	-860
▁연습	-861
▁인정	-862
▁주말	-863
▁한번	-864
스러운	-865
▁갑자기	-866
▁이별이	-867
▁자신의	-868
▁사람이랑	-869
▁중요해요	-870
▁조심하세요	-871
▁망	-872
폭풍	-873
▁되는	-874
▁사진	-875
▁엄청	-876
▁없을	-877
▁잊혀	-878
▁모르는	-879
▁합니다	-880
▁했는데	-881
▁사람들이	-882
▁알았는데	-883
▁강	-884
▁네	-885
▁음	-886
수록	-887
적이	-888
지지	-889
▁가끔	-890
▁모두	-891
▁복잡	-892
▁얼굴	-893
▁없네	-894
▁예뻐	-895
▁예의	-896
▁왔어	-897
▁재밌	-898
▁스스로	-899
▁여자가	-900
▁좋아할	-901
▁필요한	-902
하겠어요	-903
▁갖	-904
▁욕	-905
▁짧	-906
▁탈	-907
같은	-908
▁날씨	-909
▁남편	-910
▁상관	-911
▁쉬운	-912
▁자주	-913
▁지내	-914
달라고	-915
마세요	-916
▁만나고	-917
▁소개팅	-918
▁정리가	-919
▁짝남한테	-920
▁5	-921
▁극	-922
▁면	-923
▁야	-924
왔어	-925
▁떠나	-926
▁마시	-927
▁뭘까	-928
▁보는	-929
▁보이	-930
▁아픈	-931
▁알바	-932
▁저랑	-933
었는데	-934
▁기분이	-935
▁당신이	-936
▁사람한테	-937
▁4	-938
▁끊	-939
▁듣	-940
▁옷	-941
▁흐	-942
거리	-943
기로	-944
다니	-945
력이	-946
없이	-947
▁눈물	-948
▁되나	-949
▁무서	-950
▁무시	-951
▁실수	-952
▁짜증	-953
▁피곤	-954
▁싶어요	-955
▁어떡해	-956
▁연락해	-957
▁있다면	-958
▁잘하는	-959
▁후폭풍	-960
▁생각보다	-961
▁모르겠어요	-962
▁견	-963
▁꽃	-964
▁둘	-965
▁똑	-966
▁월	-967
▁줘	-968
가고	-969
건가	-970
려요	-971
만큼	-972
쁘게	-973
해질	-974
▁나와	-975
▁도와	-976
▁별로	-977
▁아픔	-978
▁정도	-979
▁기다려	-980
▁만들어	-981
▁오늘은	-982
▁지금도	-983
▁받아들이	-984
▁본	-985
▁봄	-986
▁코	-987
▁흔	-988
일째	-989
지가	-990
천히	-991
해줘	-992
▁가족	-993
▁걸까	-994
▁극복	-995
▁끝나	-996
▁모습	-997
▁뭐가	-998
▁붙잡	-999
▁빨리	-1000
▁사는	-1001
▁솔직	-1002
▁지켜	-1003
▁차단	-1004
▁학교	-1005
▁괜찮은	-1006
▁사랑에	-1007
▁잘하고	-1008
▁천천히	-1009
▁친구랑	-1010
▁6	-1011
▁갔	-1012
▁뒤	-1013
▁밤	-1014
▁빌	-1015
▁양	-1016
▁은	-1017
▁출	-1018
같아	-1019
마다	-1020
시간	-1021
▁감기	-1022
▁것이	-1023
▁그분	-1024
▁끝났	-1025
▁다녀	-1026
▁따뜻	-1027
▁마주	-1028
▁벌써	-1029
▁보여	-1030
▁자기	-1031
▁점점	-1032
▁환승	-1033
기까지	-1034
▁맛있게	-1035
▁인연이	-1036
▁확신이	-1037
▁익	-1038
기는	-1039
이면	-1040
주는	-1041
▁내려	-1042
▁두려	-1043
▁만난	-1044
▁살펴	-1045
▁설레	-1046
▁아이	-1047
▁운명	-1048
▁직장	-1049
▁하죠	-1050
▁힘이	-1051
겠지요	-1052
▁다가가	-1053
▁당신을	-1054
▁사람도	-1055
▁사세요	-1056
▁자신이	-1057
▁하는데	-1058
드릴게요	-1059
▁담	-1060
▁병	-1061
▁책	-1062
거야	-1063
라는	-1064
하나	-1065
▁날이	-1066
▁놓아	-1067
▁배우	-1068
▁봐요	-1069
▁잠시	-1070
▁주변	-1071
▁행동	-1072
▁이유가	-1073
▁첫사랑	-1074
▁하나씩	-1075
▁힘들었	-1076
하겠네요	-1077
▁연락하고	-1078
▁힘내세요	-1079
▁군	-1080
▁능	-1081
▁멀	-1082
▁베	-1083
▁응	-1084
▁찍	-1085
어가	-1086
있는	-1087
▁게임	-1088
▁나서	-1089
▁눈을	-1090
▁되길	-1091
▁성격	-1092
▁익숙	-1093
▁일찍	-1094
스러워	-1095
▁믿어요	-1096
▁사귀고	-1097
▁아닌데	-1098
▁언젠간	-1099
▁친구들	-1100
▁많았어요	-1101
▁뿐이에요	-1102
▁서로에게	-1103
▁신경쓰지	-1104
▁괴	-1105
▁교	-1106
▁맨	-1107
▁메	-1108
▁얘	-1109
로워	-1110
리지	-1111
이별	-1112
▁나도	-1113
▁나을	-1114
▁놀러	-1115
▁도전	-1116
▁마련	-1117
▁무엇	-1118
▁받고	-1119
▁스타	-1120
▁슬픈	-1121
▁않죠	-1122
▁있나	-1123
▁즐거	-1124
▁지났	-1125
▁집착	-1126
다보면	-1127
▁힘들다	-1128
▁해주세요	-1129
▁깊	-1130
▁명	-1131
남친	-1132
래도	-1133
에도	-1134
여친	-1135
▁가서	-1136
▁거죠	-1137
▁관리	-1138
▁나아	-1139
▁나오	-1140
▁느껴	-1141
▁아는	-1142
▁안녕	-1143
▁오랜	-1144
▁이겨	-1145
▁자존	-1146
▁주무	-1147
▁후련	-1148
▁만나는	-1149
▁행복해	-1150
▁힘들게	-1151
▁있었나봐요	-1152
▁곧	-1153
▁법	-1154
▁삶	-1155
▁척	-1156
▁헷	-1157
생활	-1158
어야	-1159
이는	-1160
하길	-1161
▁거짓	-1162
▁끝이	-1163
▁다행	-1164
▁말이	-1165
▁뭐야	-1166
▁알게	-1167
▁여유	-1168
▁연인	-1169
▁용기	-1170
▁우울	-1171
▁위해	-1172
▁잊지	-1173
▁자체	-1174
▁최고	-1175
▁카페	-1176
▁포기	-1177
▁헷갈	-1178
이었을	-1179
▁생각할	-1180
▁원하는	-1181
▁이상형	-1182
▁일어나	-1183
▁좋아해	-1184
▁못하겠어	-1185
▁아무것도	-1186
▁아무래도	-1187
▁이별한지	-1188
▁낫	-1189
▁봤	-1190
▁접	-1191
▁향	-1192
르고	-1193
사를	-1194
여행	-1195
정이	-1196
중에	-1197
지고	-1198
▁꿈에	-1199
▁눈이	-1200
▁되지	-1201
▁부족	-1202
▁비싸	-1203
▁소중	-1204
▁썸타	-1205
▁없이	-1206
▁응원	-1207
▁전에	-1208
▁했어	-1209
했어요	-1210
▁거짓말	-1211
▁곳으로	-1212
▁귀찮아	-1213
▁먹으면	-1214
▁보고싶	-1215
▁여친이	-1216
▁이별후	-1217
▁지금은	-1218
여보세요	-1219
▁먹어야지	-1220
▁사랑했던	-1221
▁주무세요	-1222
▁까	-1223
▁빼	-1224
▁읽	-1225
▁증	-1226
버렸	-1227
져요	-1228
한데	-1229
▁금방	-1230
▁늦지	-1231
▁다를	-1232
▁데려	-1233
▁미안	-1234
▁보면	-1235
▁보통	-1236
▁부러	-1237
▁생일	-1238
▁싸우	-1239
▁없죠	-1240
▁죽을	-1241
▁그녀를	-1242
▁나중에	-1243
▁많아요	-1244
▁사귀는	-1245
▁싶네요	-1246
▁아니라	-1247
▁않아도	-1248
▁예의가	-1249
▁전남친	-1250
▁친구를	-1251
▁필요해	-1252
었나봐요	-1253
▁괜찮을까	-1254
▁좋아하게	-1255
▁좋아하면	-1256
▁필요해요	-1257
▁가져보세요	-1258
▁냉	-1259
▁벗	-1260
▁숨	-1261
▁써	-1262
▁쓸	-1263
▁에	-1264
더라	-1265
리를	-1266
사친	-1267
야죠	-1268
움을	-1269
▁건지	-1270
▁고생	-1271
▁대로	-1272
▁맨날	-1273
▁미리	-1274
▁받는	-1275
▁부분	-1276
▁소식	-1277
▁애가	-1278
▁어렵	-1279
▁우산	-1280
▁월급	-1281
▁일을	-1282
▁잊는	-1283
▁작은	-1284
▁잠이	-1285
▁주는	-1286
▁중에	-1287
▁진정	-1288
▁충전	-1289
스럽게	-1290
이라면	-1291
해주는	-1292
했으면	-1293
▁감정을	-1294
▁남편이	-1295
▁당신은	-1296
▁때까지	-1297
▁만나지	-1298
▁만났어	-1299
▁없네요	-1300
▁이별의	-1301
▁전여친	-1302
겠습니다	-1303
▁중요하지	-1304
▁짝녀한테	-1305
▁친구한테	-1306
▁살펴보세요	-1307
▁헤어졌습니다	-1308
▁확인해보세요	-1309
▁근	-1310
▁높	-1311
▁산	-1312
▁폰	-1313
건지	-1314
대요	-1315
밖에	-1316
쇼핑	-1317
아서	-1318
으니	-1319
이가	-1320
장이	-1321
하려	-1322
하시	-1323
▁기회	-1324
▁되어	-1325
▁드는	-1326
▁로맨	-1327
▁바쁜	-1328
▁받을	-1329
▁방학	-1330
▁비밀	-1331
▁생길	-1332
▁쉬고	-1333
▁시험	-1334
▁아름	-1335
▁안나	-1336
▁안해	-1337
▁알고	-1338
▁앞에	-1339
▁약속	-1340
▁자책	-1341
▁잠깐	-1342
▁종교	-1343
▁편이	-1344
▁하늘	-1345
▁흘렀	-1346
야겠다	-1347
하겠죠	-1348
해야지	-1349
▁가세요	-1350
▁관심이	-1351
▁누구나	-1352
▁변화가	-1353
▁언제나	-1354
▁예쁘게	-1355
▁해봐요	-1356
▁확실한	-1357
▁힘들죠	-1358
▁고민이야	-1359
▁남자애가	-1360
▁연락해도	-1361
▁좋아하는데	-1362
▁사랑해주세요	-1363
ᅲᅲ	-1364
겠네	-1365
기만	-1366
당히	-1367
들어	-1368
들은	-1369
리게	-1370
하니	-1371
▁가기	-1372
▁꾸준	-1373
▁끝내	-1374
▁돈이	-1375
▁마셔	-1376
▁맞춰	-1377
▁멋진	-1378
▁미치	-1379
▁바로	-1380
▁바쁘	-1381
▁분위	-1382
▁시원	-1383
▁않고	-1384
▁이번	-1385
▁이어	-1386
▁장난	-1387
▁즐기	-1388
▁타고	-1389
▁허전	-1390
이라는	-1391
▁고민이	-1392
▁궁금해	-1393
▁그래요	-1394
▁맛있는	-1395
▁사랑할	-1396
▁생각만	-1397
▁아닌지	-1398
▁알려줘	-1399
▁없다면	-1400
▁재미있	-1401
▁즐거운	-1402
▁같습니다	-1403
▁사랑하고	-1404
▁짝남이랑	-1405
▁힘들어요	-1406
▁골	-1407
▁옆	-1408
▁채	-1409
▁칭	-1410
들을	-1411
디어	-1412
일이	-1413
퇴근	-1414
▁당연	-1415
▁됐어	-1416
▁되네	-1417
▁드라	-1418
▁먹을	-1419
▁바라	-1420
▁바보	-1421
▁보지	-1422
▁쇼핑	-1423
▁스킨	-1424
▁시켜	-1425
▁어울	-1426
▁어쩌	-1427
▁여러	-1428
▁이러	-1429
▁절대	-1430
▁존중	-1431
▁취미	-1432
▁칭찬	-1433
▁해결	-1434
더라고	-1435
잖아요	-1436
줬으면	-1437
▁그리고	-1438
▁드디어	-1439
▁못하는	-1440
▁받아들	-1441
▁봅니다	-1442
▁상처받	-1443
▁이제는	-1444
▁있는지	-1445
▁좋겠죠	-1446
▁좋은데	-1447
▁중인데	-1448
▁여자애가	-1449
▁친구들이	-1450
▁힘들겠지만	-1451
▁등	-1452
가를	-1453
줄까	-1454
해져	-1455
▁가면	-1456
▁가야	-1457
▁간다	-1458
▁경우	-1459
▁곳이	-1460
▁동거	-1461
▁때도	-1462
▁마요	-1463
▁문자	-1464
▁뭔가	-1465
▁뭔지	-1466
▁미워	-1467
▁싫다	-1468
▁안경	-1469
▁않길	-1470
▁예민	-1471
▁예쁜	-1472
▁이성	-1473
▁일은	-1474
▁잊고	-1475
▁자격	-1476
▁조언	-1477
▁지쳤	-1478
▁차분	-1479
▁하셨	-1480
▁해서	-1481
▁헤아	-1482
보는게	-1483
해지는	-1484
▁가슴이	-1485
▁괜찮을	-1486
▁두려워	-1487
▁로맨틱	-1488
▁뭐라고	-1489
▁미련이	-1490
▁사람에	-1491
▁사랑해	-1492
▁시간은	-1493
▁어느덧	-1494
▁어려워	-1495
▁짜증나	-1496
더라고요	-1497
신가봐요	-1498
▁거기까지	-1499
▁아닐까요	-1500
▁않는다면	-1501
▁있습니다	-1502
▁자책하지	-1503
▁독	-1504
▁밀	-1505
▁삼	-1506
▁역	-1507
▁택	-1508
▁터	-1509
년이	-1510
받고	-1511
음이	-1512
이밍	-1513
이지	-1514
자리	-1515
전히	-1516
한게	-1517
해졌	-1518
▁10	-1519
▁것을	-1520
▁기본	-1521
▁까먹	-1522
▁나랑	-1523
▁되고	-1524
▁두달	-1525
▁못해	-1526
▁번호	-1527
▁보러	-1528
▁볼까	-1529
▁서운	-1530
▁슬프	-1531
▁썸녀	-1532
▁어쩔	-1533
▁오는	-1534
▁취직	-1535
▁커플	-1536
▁태어	-1537
▁해주	-1538
답니다	-1539
드려요	-1540
▁그대로	-1541
▁그러면	-1542
▁마음도	-1543
▁마음은	-1544
▁문제가	-1545
▁방법이	-1546
▁안되는	-1547
▁타이밍	-1548
▁헤어져	-1549
가봅니다	-1550
아보세요	-1551
▁물어보는	-1552
▁사랑하면	-1553
▁생각하고	-1554
▁축하해요	-1555
▁다행이에요	-1556
▁받아들이는	-1557
▁부담스러워	-1558
▁자연스러운	-1559
▁좋아하는게	-1560
▁꿨	-1561
▁뜻	-1562
▁멈	-1563
▁멍	-1564
▁쌓	-1565
▁클	-1566
▁특	-1567
▁희	-1568
니가	-1569
덤덤	-1570
때는	-1571
리스	-1572
마스	-1573
보여	-1574
생님	-1575
스크	-1576
식을	-1577
심해	-1578
야할	-1579
연애	-1580
자는	-1581
했다	-1582
▁갖고	-1583
▁군대	-1584
▁귀여	-1585
▁떨려	-1586
▁뭐든	-1587
▁배워	-1588
▁불편	-1589
▁사과	-1590
▁상담	-1591
▁소리	-1592
▁일주	-1593
▁잊을	-1594
▁자유	-1595
▁저를	-1596
▁적응	-1597
▁졸업	-1598
▁집중	-1599
▁최선	-1600
▁흔들	-1601
가세요	-1602
오세요	-1603
▁가지고	-1604
▁같네요	-1605
▁것보다	-1606
▁관심을	-1607
▁꾸준히	-1608
▁능력이	-1609
▁무서워	-1610
▁선생님	-1611
▁썸남이	-1612
▁어려운	-1613
▁용기를	-1614
▁위로해	-1615
▁이상한	-1616
▁잊어버	-1617
▁적당히	-1618
▁준비가	-1619
▁충분한	-1620
▁화장실	-1621
상이에요	-1622
▁기다리고	-1623
▁다음에는	-1624
▁말하세요	-1625
▁사람마다	-1626
▁않았으면	-1627
▁진심으로	-1628
▁헤어졌어	-1629
▁후회하지	-1630
▁사람이네요	-1631
▁힘들겠어요	-1632
▁삭	-1633
▁샀	-1634
냄새	-1635
만의	-1636
시켜	-1637
오네	-1638
치가	-1639
한거	-1640
한다	-1641
함이	-1642
▁고마	-1643
▁그건	-1644
▁끝을	-1645
▁나온	-1646
▁누가	-1647
▁당당	-1648
▁대학	-1649
▁두근	-1650
▁몰랐	-1651
▁몸이	-1652
▁배려	-1653
▁병원	-1654
▁삭제	-1655
▁생기	-1656
▁어색	-1657
▁연예	-1658
▁오빠	-1659
▁원래	-1660
▁위험	-1661
▁이기	-1662
▁일어	-1663
▁잠수	-1664
▁잠을	-1665
▁적극	-1666
▁좋았	-1667
▁질투	-1668
▁집안	-1669
▁청소	-1670
▁출근	-1671
▁키우	-1672
하려고	-1673
▁가야지	-1674
▁감정이	-1675
▁그녀가	-1676
▁그사람	-1677
▁남친이	-1678
▁받았어	-1679
▁사람과	-1680
▁스킨십	-1681
▁스타일	-1682
▁있나요	-1683
▁있네요	-1684
▁저에게	-1685
▁제대로	-1686
▁하는게	-1687
았나봐요	-1688
▁사람에게	-1689
▁않을까요	-1690
▁있겠어요	-1691
▁있잖아요	-1692
▁자신에게	-1693
▁후폭풍이	-1694
▁만나보세요	-1695
▁좋아하는지	-1696
▁S	-1697
▁각	-1698
▁걷	-1699
▁권	-1700
▁꼬	-1701
▁셀	-1702
▁철	-1703
▁체	-1704
▁톡	-1705
▁투	-1706
▁팔	-1707
가지	-1708
내고	-1709
내서	-1710
년째	-1711
놓고	-1712
려면	-1713
르는	-1714
사가	-1715
시길	-1716
시는	-1717
었다	-1718
이요	-1719
인거	-1720
▁감사	-1721
▁경험	-1722
▁꿈을	-1723
▁나눠	-1724
▁놀이	-1725
▁다이	-1726
▁담배	-1727
▁당황	-1728
▁무너	-1729
▁무뎌	-1730
▁발표	-1731
▁버려	-1732
▁버텨	-1733
▁보냈	-1734
▁본인	-1735
▁쉽게	-1736
▁싫은	-1737
▁안타	-1738
▁애랑	-1739
▁얘기	-1740
▁어플	-1741
▁올려	-1742
▁좋다	-1743
▁좋지	-1744
▁착각	-1745
▁편지	-1746
▁프로	-1747
▁하기	-1748
됩니다	-1749
인가봐	-1750
하다고	-1751
▁데려다	-1752
▁말하는	-1753
▁머리가	-1754
▁사람의	-1755
▁상황을	-1756
▁서로를	-1757
▁성격이	-1758
▁아름다	-1759
▁안하고	-1760
▁연예인	-1761
▁완전히	-1762
▁있어도	-1763
▁좋아한	-1764
▁하나도	-1765
▁해보는	-1766
▁행복한	-1767
▁후회할	-1768
▁되겠네요	-1769
▁만나자고	-1770
▁보고싶어	-1771
▁일이에요	-1772
▁자신감을	-1773
▁그런가봐요	-1774
▁겨	-1775
▁났	-1776
▁늘	-1777
▁판	-1778
고생	-1779
구나	-1780
리면	-1781
만이	-1782
상을	-1783
성이	-1784
시다	-1785
어머	-1786
없는	-1787
었네	-1788
워질	-1789
이길	-1790
장을	-1791
지네	-1792
질까	-1793
▁같네	-1794
▁과정	-1795
▁귀엽	-1796
▁기운	-1797
▁끝은	-1798
▁나타	-1799
▁동생	-1800
▁드시	-1801
▁말도	-1802
▁먹는	-1803
▁바꿔	-1804
▁바빠	-1805
▁발전	-1806
▁부탁	-1807
▁사실	-1808
▁살짝	-1809
▁새벽	-1810
▁생긴	-1811
▁속이	-1812
▁싶지	-1813
▁안됐	-1814
▁우선	-1815
▁위한	-1816
▁인사	-1817
▁일도	-1818
▁있고	-1819
▁점심	-1820
▁존재	-1821
▁주고	-1822
▁차이	-1823
▁피부	-1824
▁해줘	-1825
으면서	-1826
인가요	-1827
▁그리워	-1828
▁기다릴	-1829
▁놀아요	-1830
▁눈물이	-1831
▁돌아오	-1832
▁맘고생	-1833
▁못하고	-1834
▁무엇이	-1835
▁아무리	-1836
▁안들어	-1837
▁연습을	-1838
▁한동안	-1839
▁호감이	-1840
▁혼자가	-1841
▁힘들지	-1842
리스마스	-1843
했습니다	-1844
▁만나세요	-1845
▁놓아주세요	-1846
▁생각하세요	-1847
▁축하드려요	-1848
▁말씀해주세요	-1849
▁시작해보세요	-1850
NS	-1851
▁7	-1852
▁깔	-1853
▁꺼	-1854
▁뜨	-1855
▁리	-1856
▁침	-1857
나는	-1858
냐고	-1859
력을	-1860
말고	-1861
봐도	-1862
상이	-1863
어트	-1864
었을	-1865
웨딩	-1866
음을	-1867
이다	-1868
줬어	-1869
▁가치	-1870
▁갈까	-1871
▁걸로	-1872
▁계획	-1873
▁고쳐	-1874
▁괜히	-1875
▁괴롭	-1876
▁그랬	-1877
▁그럼	-1878
▁다니	-1879
▁듣고	-1880
▁따로	-1881
▁떠난	-1882
▁면접	-1883
▁목소	-1884
▁못한	-1885
▁무섭	-1886
▁바뀌	-1887
▁받지	-1888
▁배고	-1889
▁버스	-1890
▁비가	-1891
▁살까	-1892
▁속상	-1893
▁쉬는	-1894
▁쓰레	-1895
▁애매	-1896
▁없나	-1897
▁없다	-1898
▁없애	-1899
▁우연	-1900
▁의지	-1901
▁이름	-1902
▁이용	-1903
▁자고	-1904
▁저녁	-1905
▁주면	-1906
▁지우	-1907
▁지쳐	-1908
▁퇴근	-1909
▁프사	-1910
▁피해	-1911
▁학원	-1912
▁한잔	-1913
▁했던	-1914
다가도	-1915
두세요	-1916
드세요	-1917
하다면	-1918
▁SNS	-1919
▁가자고	-1920
▁남자를	-1921
▁되는데	-1922
▁만나서	-1923
▁아는데	-1924
▁외로워	-1925
▁이상해	-1926
▁지나갈	-1927
▁추억이	-1928
▁친구로	-1929
▁괜찮아졌	-1930
▁괜찮아질	-1931
▁다이어트	-1932
▁생각하는	-1933
▁연락하면	-1934
▁오랜만에	-1935
▁좋을텐데	-1936
하지마세요	-1937
▁모르겠네요	-1938
▁사랑하는데	-1939
▁사랑한다고	-1940
▁여자친구와	-1941
▁자연스럽게	-1942
▁크리스마스	-1943
▁현상이에요	-1944
▁말씀해보세요	-1945
▁이야기해보세요	-1946
▁8	-1947
▁낭	-1948
▁뒷	-1949
▁뿌	-1950
▁억	-1951
▁업	-1952
▁트	-1953
▁페	-1954
느라	-1955
됐어	-1956
리기	-1957
서관	-1958
소한	-1959
어서	-1960
였어	-1961
주가	-1962
지면	-1963
치고	-1964
치는	-1965
했을	-1966
▁가벼	-1967
▁간절	-1968
▁거야	-1969
▁거절	-1970
▁건가	-1971
▁견디	-1972
▁꿈이	-1973
▁냄새	-1974
▁누군	-1975
▁눈에	-1976
▁느끼	-1977
▁대해	-1978
▁돈을	-1979
▁되면	-1980
▁많죠	-1981
▁미래	-1982
▁바뀔	-1983
▁반복	-1984
▁불안	-1985
▁비교	-1986
▁사라	-1987
▁소화	-1988
▁신혼	-1989
▁심해	-1990
▁안와	-1991
▁안좋	-1992
▁영원	-1993
▁오해	-1994
▁이거	-1995
▁이사	-1996
▁이혼	-1997
▁인형	-1998
▁일상	-1999
▁있지	-2000
▁주지	-2001
▁취업	-2002
일지도	-2003
하니까	-2004
해봐요	-2005
해지면	-2006
▁결혼식	-2007
▁나이가	-2008
▁날씨가	-2009
▁내일은	-2010
▁도서관	-2011
▁될까요	-2012
▁만나면	-2013
▁뭐하지	-2014
▁분위기	-2015
▁붙잡고	-2016
▁상처를	-2017
▁선택일	-2018
▁소중한	-2019
▁쉬세요	-2020
▁안해도	-2021
▁앞에서	-2022
▁앞으로	-2023
▁어쩌지	-2024
▁없는데	-2025
▁여유를	-2026
▁연락처	-2027
▁일주일	-2028
▁장거리	-2029
▁필요할	-2030
▁했으면	-2031
▁호감을	-2032
▁확실히	-2033
을거예요	-2034
▁기다리는	-2035
▁만났는데	-2036
▁부담스럽	-2037
▁생각나는	-2038
▁않았어요	-2039
▁연락하지	-2040
▁좋아할까	-2041
▁궁금하네요	-2042
▁사람이에요	-2043
▁지켜보세요	-2044
▁짝사랑하는	-2045
▁들어드릴게요	-2046
▁끄	-2047
▁됨	-2048
▁든	-2049
▁딸	-2050
▁뻔	-2051
▁썼	-2052
▁쐬	-2053
▁염	-2054
▁잤	-2055
▁짐	-2056
▁찌	-2057
▁틀	-2058
▁헛	-2059
간이	-2060
거려	-2061
러가	-2062
세먼	-2063
심이	-2064
었던	-2065
요일	-2066
으시	-2067
인듯	-2068
주지	-2069
하셨	-2070
할지	-2071
▁가까	-2072
▁갑작	-2073
▁개인	-2074
▁거울	-2075
▁결과	-2076
▁기념	-2077
▁깔끔	-2078
▁나의	-2079
▁내는	-2080
▁느려	-2081
▁대단	-2082
▁되죠	-2083
▁때는	-2084
▁멋있	-2085
▁못할	-2086
▁미친	-2087
▁불러	-2088
▁비슷	-2089
▁사귈	-2090
▁슬퍼	-2091
▁썸이	-2092
▁않네	-2093
▁야근	-2094
▁역시	-2095
▁옆에	-2096
▁완벽	-2097
▁왔다	-2098
▁잡고	-2099
▁조급	-2100
▁졸려	-2101
▁차별	-2102
▁치과	-2103
▁크게	-2104
▁호감	-2105
듭니다	-2106
면서도	-2107
으려고	-2108
적이든	-2109
▁가능할	-2110
▁걱정돼	-2111
▁걱정되	-2112
▁그녀의	-2113
▁꿈에서	-2114
▁달라고	-2115
▁때네요	-2116
▁마스크	-2117
▁무서운	-2118
▁벗어나	-2119
▁상황이	-2120
▁시작이	-2121
▁쓰레기	-2122
▁아무도	-2123
▁않으면	-2124
▁어디서	-2125
▁어때요	-2126
▁얼마나	-2127
▁엄마가	-2128
▁연애는	-2129
▁예뻐요	-2130
▁왔는데	-2131
▁저도요	-2132
▁집안일	-2133
▁집에서	-2134
▁타는데	-2135
▁편하게	-2136
▁고민하고	-2137
▁사랑해서	-2138
▁생각나네	-2139
▁썸남한테	-2140
▁어떡하지	-2141
▁연락하는	-2142
▁좋아하고	-2143
▁친구들과	-2144
▁필요하죠	-2145
▁하다보면	-2146
▁했습니다	-2147
▁헤어져야	-2148
▁헷갈리게	-2149
▁흘렀네요	-2150
▁남자친구의	-2151
▁알아보세요	-2152
▁여자친구의	-2153
▁이야기네요	-2154
▁있으니까요	-2155
▁전해보세요	-2156
▁지쳤나봐요	-2157
▁노력해보세요	-2158
▁이해해주세요	-2159
▁잊어버리세요	-2160
▁ᅲ	-2161
▁갚	-2162
▁긍	-2163
▁농	-2164
▁움	-2165
▁죄	-2166
▁창	-2167
▁춥	-2168
▁패	-2169
▁푹	-2170
▁혹	-2171
같이	-2172
남자	-2173
될까	-2174
러워	-2175
려도	-2176
머리	-2177
먹고	-2178
방법	-2179
싶다	-2180
어진	-2181
여자	-2182
오는	-2183
이고	-2184
주고	-2185
준비	-2186
할때	-2187
호흡	-2188
▁거지	-2189
▁견뎌	-2190
▁고통	-2191
▁공허	-2192
▁권태	-2193
▁긍정	-2194
▁기울	-2195
▁깨달	-2196
▁꿨어	-2197
▁나올	-2198
▁남았	-2199
▁남을	-2200
▁남의	-2201
▁놀고	-2202
▁놀아	-2203
▁동물	-2204
▁라면	-2205
▁마무	-2206
▁만드	-2207
▁말할	-2208
▁몰라	-2209
▁문득	-2210
▁보일	-2211
▁부럽	-2212
▁분명	-2213
▁사고	-2214
▁사귄	-2215
▁사야	-2216
▁사회	-2217
▁샀어	-2218
▁상태	-2219
▁생활	-2220
▁선톡	-2221
▁시계	-2222
▁실망	-2223
▁쓰는	-2224
▁아까	-2225
▁않게	-2226
▁알았	-2227
▁야경	-2228
▁어서	-2229
▁어장	-2230
▁외로	-2231
▁원망	-2232
▁유지	-2233
▁은근	-2234
▁이건	-2235
▁이럴	-2236
▁이루	-2237
▁인간	-2238
▁전부	-2239
▁정확	-2240
▁줘도	-2241
▁지워	-2242
▁차가	-2243
▁추워	-2244
▁친한	-2245
▁택시	-2246
▁텐데	-2247
▁판단	-2248
▁평소	-2249
▁혹시	-2250
▁화가	-2251
▁희망	-2252
립니다	-2253
었어요	-2254
으니까	-2255
한다면	-2256
해볼까	-2257
▁결정을	-2258
▁그동안	-2259
▁그래서	-2260
▁기념일	-2261
▁남사친	-2262
▁당신도	-2263
▁먹을까	-2264
▁무덤덤	-2265
▁미세먼	-2266
▁변화를	-2267
▁상처가	-2268
▁생겼어	-2269
▁서로의	-2270
▁실감이	-2271
▁심호흡	-2272
▁썸인지	-2273
▁썸타는	-2274
▁아침에	-2275
▁안타깝	-2276
▁언제쯤	-2277
▁없다고	-2278
▁여사친	-2279
▁여행을	-2280
▁연애를	-2281
▁용기가	-2282
▁이유를	-2283
▁인생은	-2284
▁있는게	-2285
▁있지만	-2286
▁잊어야	-2287
▁잊혀지	-2288
▁잘해줘	-2289
▁저한테	-2290
▁지나갔	-2291
▁지내고	-2292
▁짝녀랑	-2293
▁찾아올	-2294
▁필요는	-2295
▁할텐데	-2296
▁해야지	-2297
▁후회가	-2298
였나봐요	-2299
▁가지세요	-2300
▁남자들은	-2301
▁당당하게	-2302
▁만나는게	-2303
▁받아들여	-2304
▁버리세요	-2305
▁사람으로	-2306
▁사랑하지	-2307
▁상대방을	-2308
▁생각하지	-2309
▁아니라고	-2310
▁여기까지	-2311
▁이야기를	-2312
▁좋아해도	-2313
▁즐기세요	-2314
▁행복하게	-2315
▁회사에서	-2316
▁결정이었을	-2317
▁무시하세요	-2318
▁않으니까요	-2319
▁여자친구랑	-2320
▁헤어졌는데	-2321
▁기다려보세요	-2322
▁만들어보세요	-2323
▁걔	-2324
▁낮	-2325
▁넣	-2326
▁놔	-2327
▁딴	-2328
▁센	-2329
▁쓴	-2330
▁씻	-2331
▁컨	-2332
▁컴	-2333
거를	-2334
나게	-2335
냐에	-2336
되는	-2337
두고	-2338
디션	-2339
렸어	-2340
리네	-2341
릴까	-2342
스타	-2343
점을	-2344
지로	-2345
치지	-2346
하루	-2347
해줄	-2348
했네	-2349
▁가요	-2350
▁거니	-2351
▁계절	-2352
▁공통	-2353
▁그것	-2354
▁길이	-2355
▁깊은	-2356
▁끝난	-2357
▁나왔	-2358
▁나은	-2359
▁놓고	-2360
▁다들	-2361
▁다양	-2362
▁더워	-2363
▁동안	-2364
▁두고	-2365
▁때론	-2366
▁때를	-2367
▁마다	-2368
▁막말	-2369
▁만든	-2370
▁말투	-2371
▁먹었	-2372
▁멈추	-2373
▁반대	-2374
▁봐도	-2375
▁소문	-2376
▁소원	-2377
▁수가	-2378
▁수록	-2379
▁스키	-2380
▁신고	-2381
▁쐬고	-2382
▁아예	-2383
▁안전	-2384
▁울적	-2385
▁음악	-2386
▁이게	-2387
▁있길	-2388
▁자세	-2389
▁조절	-2390
▁중국	-2391
▁지난	-2392
▁진급	-2393
▁짧은	-2394
▁채워	-2395
▁축구	-2396
▁취향	-2397
▁클럽	-2398
▁통보	-2399
▁편한	-2400
▁편할	-2401
▁평생	-2402
▁피할	-2403
▁하게	-2404
▁현금	-2405
▁현재	-2406
버렸어	-2407
일까요	-2408
해주고	-2409
▁가치관	-2410
▁감정에	-2411
▁거겠죠	-2412
▁그녀는	-2413
▁나왔어	-2414
▁됐으면	-2415
▁되기도	-2416
▁됩니다	-2417
▁드라마	-2418
▁똑같은	-2419
▁만난지	-2420
▁많은데	-2421
▁모르고	-2422
▁미안해	-2423
▁방학이	-2424
▁부러워	-2425
▁상대를	-2426
▁생각하	-2427
▁선물이	-2428
▁선택을	-2429
▁시어머	-2430
▁아니면	-2431
▁아프네	-2432
▁안돼요	-2433
▁안하는	-2434
▁애한테	-2435
▁언젠가	-2436
▁없어서	-2437
▁없으면	-2438
▁연락은	-2439
▁운동을	-2440
▁위로가	-2441
▁이겨낼	-2442
▁있겠죠	-2443
▁있겠지	-2444
▁자신에	-2445
▁좋지만	-2446
▁진정한	-2447
▁최고죠	-2448
▁하면서	-2449
▁한달이	-2450
▁행복할	-2451
▁가능성이	-2452
▁달라지는	-2453
▁떨어졌어	-2454
▁말이에요	-2455
▁부러워요	-2456
▁상대방이	-2457
▁생겼는데	-2458
▁아니라면	-2459
▁안됐는데	-2460
▁알면서도	-2461
▁용기내서	-2462
▁이성으로	-2463
▁자존감이	-2464
▁좋아하던	-2465
▁지금처럼	-2466
▁짝사랑이	-2467
▁충분해요	-2468
▁한동안은	-2469
▁힘들어서	-2470
▁힘들었을	-2471
▁방법이에요	-2472
▁부담스럽지	-2473
▁사람들에게	-2474
▁사랑한다면	-2475
▁여자애한테	-2476
▁응원합니다	-2477
▁있을거예요	-2478
▁적극적으로	-2479
▁정리하는게	-2480
▁헤어지자고	-2481
▁준비해보세요	-2482
ns	-2483
▁곁	-2484
▁깎	-2485
▁넌	-2486
▁뛰	-2487
▁맥	-2488
▁밝	-2489
▁악	-2490
▁으	-2491
▁잃	-2492
▁짓	-2493
▁째	-2494
▁찬	-2495
▁케	-2496
▁합	-2497
▁헬	-2498
가네	-2499
가면	-2500
가봐	-2501
간의	-2502
겼어	-2503
데요	-2504
배가	-2505
부를	-2506
수도	-2507
시면	-2508
식이	-2509
아야	-2510
아지	-2511
없어	-2512
울까	-2513
웠어	-2514
이팅	-2515
장고	-2516
전에	-2517
전환	-2518
지를	-2519
통보	-2520
하러	-2521
sns	-2522
▁ᅲᅲ	-2523
▁각자	-2524
▁갔다	-2525
▁거의	-2526
▁걸릴	-2527
▁것은	-2528
▁결심	-2529
▁골라	-2530
▁곳에	-2531
▁과일	-2532
▁교회	-2533
▁근처	-2534
▁글을	-2535
▁긴장	-2536
▁나면	-2537
▁나쁘	-2538
▁남겨	-2539
▁늦게	-2540
▁단단	-2541
▁달달	-2542
▁당장	-2543
▁두번	-2544
▁둘이	-2545
▁드네	-2546
▁만족	-2547
▁말까	-2548
▁말은	-2549
▁맥주	-2550
▁무리	-2551
▁바꾸	-2552
▁바꿀	-2553
▁밖에	-2554
▁변덕	-2555
▁분이	-2556
▁불행	-2557
▁사용	-2558
▁산책	-2559
▁상사	-2560
▁새로	-2561
▁설렘	-2562
▁셀프	-2563
▁시기	-2564
▁신청	-2565
▁싶네	-2566
▁쓰고	-2567
▁쓸데	-2568
▁아빠	-2569
▁알면	-2570
▁어린	-2571
▁여기	-2572
▁예쁘	-2573
▁오면	-2574
▁올라	-2575
▁왜이	-2576
▁외국	-2577
▁움직	-2578
▁있네	-2579
▁자리	-2580
▁잘생	-2581
▁잘해	-2582
▁전공	-2583
▁전환	-2584
▁제발	-2585
▁중간	-2586
▁진실	-2587
▁집이	-2588
▁초대	-2589
▁최악	-2590
▁태도	-2591
▁페북	-2592
▁하네	-2593
▁화를	-2594
▁휴가	-2595
더라도	-2596
만으로	-2597
싶은데	-2598
어가네	-2599
을지도	-2600
줄게요	-2601
하거나	-2602
하지만	-2603
▁곳에서	-2604
▁공부는	-2605
▁관계를	-2606
▁그렇지	-2607
▁기회가	-2608
▁끝까지	-2609
▁나이는	-2610
▁남자는	-2611
▁내세요	-2612
▁냉장고	-2613
▁느낌이	-2614
▁따뜻한	-2615
▁떨어져	-2616
▁마무리	-2617
▁모습이	-2618
▁물어보	-2619
▁물어봐	-2620
▁뭐하고	-2621
▁믿음이	-2622
▁부족한	-2623
▁사소한	-2624
▁사이가	-2625
▁상관없	-2626
▁생각에	-2627
▁생각은	-2628
▁생각한	-2629
▁선물을	-2630
▁시원한	-2631
▁썸인데	-2632
▁아니야	-2633
▁여자를	-2634
▁온전히	-2635
▁인기가	-2636
▁있다고	-2637
▁정리할	-2638
▁제자리	-2639
▁좋겠지	-2640
▁지났네	-2641
▁진심을	-2642
▁집들이	-2643
▁차분히	-2644
▁최선의	-2645
▁파이팅	-2646
▁표현해	-2647
셨나봐요	-2648
이었으면	-2649
▁고백해도	-2650
▁그렇지만	-2651
▁기분전환	-2652
▁마음으로	-2653
▁무엇이든	-2654
▁부럽네요	-2655
▁부모님이	-2656
▁사랑으로	-2657
▁썸남이랑	-2658
▁아름다운	-2659
▁아프네요	-2660
▁없나봐요	-2661
▁이별통보	-2662
▁일이네요	-2663
▁좋겠지만	-2664
▁좋아해요	-2665
▁중요하죠	-2666
▁피하세요	-2667
▁하루하루	-2668
▁하셨네요	-2669
▁환승이별	-2670
▁힘들겠지	-2671
▁남자친구와	-2672
▁생각이에요	-2673
▁습관이에요	-2674
▁알려주세요	-2675
▁적어보세요	-2676
▁힘들겠네요	-2677
▁고백해보세요	-2678
▁사용해보세요	-2679
▁필요하겠네요	-2680
▁힘들었겠어요	-2681
~~	-2682
ᄒᄒ	-2683
▁9	-2684
▁김	-2685
▁꿀	-2686
▁디	-2687
▁맡	-2688
▁백	-2689
▁벚	-2690
▁블	-2691
▁뽑	-2692
▁숙	-2693
▁싱	-2694
▁콩	-2695
▁푸	-2696
▁핑	-2697
가락	-2698
갈까	-2699
갔어	-2700
규직	-2701
기간	-2702
나면	-2703
달째	-2704
대폰	-2705
도록	-2706
듯이	-2707
래요	-2708
먹기	-2709
무원	-2710
부로	-2711
샤워	-2712
순위	-2713
시락	-2714
았던	-2715
오면	-2716
우면	-2717
유증	-2718
이니	-2719
인이	-2720
장면	-2721
제를	-2722
지게	-2723
포즈	-2724
하던	-2725
혼자	-2726
▁30	-2727
▁간접	-2728
▁겨울	-2729
▁고맙	-2730
▁공시	-2731
▁과거	-2732
▁과식	-2733
▁교양	-2734
▁글로	-2735
▁기술	-2736
▁남아	-2737
▁낫죠	-2738
▁내요	-2739
▁다되	-2740
▁달콤	-2741
▁됐네	-2742
▁떨리	-2743
▁마실	-2744
▁많을	-2745
▁맘에	-2746
▁맘이	-2747
▁맛난	-2748
▁매력	-2749
▁머릿	-2750
▁메뉴	-2751
▁면도	-2752
▁모아	-2753
▁목표	-2754
▁물리	-2755
▁밀당	-2756
▁반지	-2757
▁벚꽃	-2758
▁변명	-2759
▁보기	-2760
▁보니	-2761
▁보험	-2762
▁부딪	-2763
▁부자	-2764
▁빠르	-2765
▁선이	-2766
▁소비	-2767
▁심심	-2768
▁썸의	-2769
▁아껴	-2770
▁아쉬	-2771
▁애정	-2772
▁어찌	-2773
▁오네	-2774
▁오랫	-2775
▁외롭	-2776
▁용돈	-2777
▁용서	-2778
▁이뤄	-2779
▁이불	-2780
▁인기	-2781
▁있게	-2782
▁절약	-2783
▁죽고	-2784
▁중독	-2785
▁지칠	-2786
▁참고	-2787
▁청첩	-2788
▁파혼	-2789
▁편안	-2790
▁풀릴	-2791
▁한다	-2792
▁행운	-2793
▁향수	-2794
▁헬스	-2795
거같아	-2796
된다고	-2797
었으면	-2798
이라고	-2799
이라니	-2800
장에서	-2801
하기는	-2802
하는지	-2803
하다가	-2804
하자고	-2805
할게요	-2806
▁sns	-2807
▁건강에	-2808
▁공무원	-2809
▁관계가	-2810
▁귀여워	-2811
▁그만큼	-2812
▁극복할	-2813
▁나에게	-2814
▁남자랑	-2815
▁노래방	-2816
▁달라지	-2817
▁도시락	-2818
▁됐는데	-2819
▁드라이	-2820
▁들어가	-2821
▁들어와	-2822
▁모습을	-2823
▁뭐라도	-2824
▁바쁘게	-2825
▁배고파	-2826
▁병원에	-2827
▁보내고	-2828
▁보이고	-2829
▁사귀기	-2830
▁사랑했	-2831
▁살아야	-2832
▁새벽에	-2833
▁선물은	-2834
▁세상에	-2835
▁시간도	-2836
▁시기가	-2837
▁아무렇	-2838
▁아프다	-2839
▁않는데	-2840
▁앞머리	-2841
▁억지로	-2842
▁여자랑	-2843
▁여전히	-2844
▁연애가	-2845
▁우세요	-2846
▁울어도	-2847
▁의사를	-2848
▁인생이	-2849
▁있다는	-2850
▁있어서	-2851
▁있으니	-2852
▁자격이	-2853
▁자신만	-2854
▁전화를	-2855
▁준비를	-2856
▁찾아가	-2857
▁친구의	-2858
▁태어난	-2859
▁표현이	-2860
▁피곤해	-2861
▁혼자만	-2862
▁혼자서	-2863
▁휴대폰	-2864
셔보세요	-2865
시겠어요	-2866
어주세요	-2867
해야할까	-2868
했겠어요	-2869
▁걱정하지	-2870
▁나가세요	-2871
▁내보세요	-2872
▁누군가를	-2873
▁따뜻하게	-2874
▁만나기로	-2875
▁만들어요	-2876
▁맞는걸까	-2877
▁보고싶다	-2878
▁생각하면	-2879
▁솔직하게	-2880
▁스트레칭	-2881
▁싶습니다	-2882
▁않겠지만	-2883
▁없겠네요	-2884
▁여자들은	-2885
▁여자한테	-2886
▁이별에는	-2887
▁잊으세요	-2888
▁잘했어요	-2889
▁점심시간	-2890
▁준비하는	-2891
▁하나봐요	-2892
▁했나봐요	-2893
▁걸어보세요	-2894
▁고백했는데	-2895
▁나눠보세요	-2896
▁남자친구랑	-2897
▁다녀오세요	-2898
▁다르겠지만	-2899
▁돌려보세요	-2900
▁믿어보세요	-2901
▁바쁜가봐요	-2902
▁스스로에게	-2903
▁좋아해주는	-2904
▁지금이라도	-2905
▁친구들이랑	-2906
▁필요하다면	-2907
▁힘든가봅니다	-2908
ᅮᅮ	-2909
▁겁	-2910
▁격	-2911
▁급	-2912
▁깜	-2913
▁꼼	-2914
▁끈	-2915
▁넓	-2916
▁녹	-2917
▁놈	-2918
▁닮	-2919
▁땀	-2920
▁띄	-2921
▁잇	-2922
▁찔	-2923
▁쳐	-2924
▁털	-2925
거죠	-2926
까봐	-2927
나고	-2928
나서	-2929
내는	-2930
냈어	-2931
년의	-2932
다발	-2933
데이	-2934
되면	-2935
든지	-2936
따라	-2937
라리	-2938
라이	-2939
렌타	-2940
려구	-2941
려나	-2942
린다	-2943
받아	-2944
번호	-2945
보내	-2946
보니	-2947
분이	-2948
빼로	-2949
생숭	-2950
어두	-2951
정도	-2952
주려	-2953
지마	-2954
치기	-2955
터리	-2956
테리	-2957
하긴	-2958
하대	-2959
함을	-2960
▁가도	-2961
▁감성	-2962
▁개강	-2963
▁거면	-2964
▁경쟁	-2965
▁곁에	-2966
▁그는	-2967
▁그대	-2968
▁기원	-2969
▁깨끗	-2970
▁남기	-2971
▁내리	-2972
▁너를	-2973
▁노후	-2974
▁놀랐	-2975
▁눈치	-2976
▁늦은	-2977
▁답장	-2978
▁대출	-2979
▁데는	-2980
▁떠오	-2981
▁맛집	-2982
▁맞추	-2983
▁매달	-2984
▁명절	-2985
▁모른	-2986
▁몰래	-2987
▁못잊	-2988
▁무거	-2989
▁반가	-2990
▁받은	-2991
▁밝혀	-2992
▁버릴	-2993
▁별거	-2994
▁보다	-2995
▁봄이	-2996
▁빠를	-2997
▁사업	-2998
▁살기	-2999
▁삶을	-3000
▁생겨	-3001
▁샤워	-3002
▁성장	-3003
▁속에	-3004
▁수다	-3005
▁술마	-3006
▁술을	-3007
▁심경	-3008
▁싱숭	-3009
▁썸은	-3010
▁썸을	-3011
▁애들	-3012
▁어머	-3013
▁업무	-3014
▁없지	-3015
▁에휴	-3016
▁여름	-3017
▁염색	-3018
▁왔네	-3019
▁외모	-3020
▁유부	-3021
▁은연	-3022
▁의외	-3023
▁이미	-3024
▁인내	-3025
▁입을	-3026
▁잘되	-3027
▁장소	-3028
▁중인	-3029
▁지는	-3030
▁참는	-3031
▁콩깍	-3032
▁통해	-3033
▁투자	-3034
▁핑계	-3035
▁하다	-3036
▁하던	-3037
▁해보	-3038
▁회식	-3039
▁회원	-3040
▁휴식	-3041
▁흐르	-3042
갑니다	-3043
기세요	-3044
내세요	-3045
르세요	-3046
셨네요	-3047
시군요	-3048
왔는데	-3049
을거라	-3050
이었길	-3051
졌으면	-3052
줬는데	-3053
하기도	-3054
하느라	-3055
하는거	-3056
하지는	-3057
▁가끔은	-3058
▁가는데	-3059
▁감정의	-3060
▁거리를	-3061
▁결혼은	-3062
▁고민임	-3063
▁고백을	-3064
▁과정이	-3065
▁꽃다발	-3066
▁나보다	-3067
▁나을까	-3068
▁나혼자	-3069
▁남자들	-3070
▁내려놓	-3071
▁너에게	-3072
▁노력하	-3073
▁달라진	-3074
▁답답한	-3075
▁답답해	-3076
▁도와줘	-3077
▁도움을	-3078
▁되는지	-3079
▁마시고	-3080
▁말하지	-3081
▁못해요	-3082
▁받으면	-3083
▁발렌타	-3084
▁배우는	-3085
▁보내는	-3086
▁보이지	-3087
▁복잡한	-3088
▁본인의	-3089
▁부분이	-3090
▁빼빼로	-3091
▁사진을	-3092
▁생겼네	-3093
▁솔직한	-3094
▁쉬어도	-3095
▁습관을	-3096
▁않아서	-3097
▁않을까	-3098
▁알아차	-3099
▁없을까	-3100
▁연애에	-3101
▁완벽한	-3102
▁왔으면	-3103
▁외로운	-3104
▁우리는	-3105
▁위로봇	-3106
▁이러지	-3107
▁이별도	-3108
▁이별에	-3109
▁이어나	-3110
▁이유는	-3111
▁이제야	-3112
▁이해가	-3113
▁인생을	-3114
▁일어났	-3115
▁일하는	-3116
▁있지요	-3117
▁자체가	-3118
▁재미가	-3119
▁정리를	-3120
▁정신차	-3121
▁좋으면	-3122
▁주말에	-3123
▁주말이	-3124
▁주변에	-3125
▁차라리	-3126
▁표현을	-3127
▁해주는	-3128
▁행복은	-3129
▁행복을	-3130
▁헤어질	-3131
▁현실을	-3132
▁현재를	-3133
▁회사는	-3134
겨보세요	-3135
▁가능해요	-3136
▁결혼하면	-3137
▁그녀에게	-3138
▁기다리면	-3139
▁기대세요	-3140
▁노력하는	-3141
▁다르겠죠	-3142
▁다음부터	-3143
▁두근거리	-3144
▁로맨틱한	-3145
▁마련이죠	-3146
▁마음대로	-3147
▁바쁘거나	-3148
▁상대에게	-3149
▁슬프네요	-3150
▁싱숭생숭	-3151
▁써보세요	-3152
▁않나봐요	-3153
▁알다가도	-3154
▁어려워요	-3155
▁어울리는	-3156
▁오랫동안	-3157
▁익숙해지	-3158
▁있었으면	-3159
▁있을까요	-3160
▁있을지도	-3161
▁정리하는	-3162
▁좋아했던	-3163
▁지났네요	-3164
▁직장에서	-3165
▁짝사랑은	-3166
▁타이밍이	-3167
▁프로포즈	-3168
▁해야할까	-3169
▁헤아리는	-3170
▁헤어졌네	-3171
▁헤어지면	-3172
▁헤어지지	-3173
▁현실적인	-3174
▁흔들리지	-3175
▁힘듭니다	-3176
으신가봐요	-3177
인가봅니다	-3178
▁감사합니다	-3179
▁고생했어요	-3180
▁골라보세요	-3181
▁되었습니다	-3182
▁드셔보세요	-3183
▁들어보세요	-3184
▁마련이에요	-3185
▁마지막으로	-3186
▁맞았나봐요	-3187
▁스트레스가	-3188
▁시어머니가	-3189
▁아니니까요	-3190
▁있더라고요	-3191
▁조금이라도	-3192
▁다가가보세요	-3193
▁로맨틱하네요	-3194
▁복잡하겠어요	-3195
▁부탁해보세요	-3196
▁여자친구에게	-3197
▁표현해보세요	-3198
▁A	-3199
▁널	-3200
▁년	-3201
▁늙	-3202
▁땡	-3203
▁봉	-3204
▁섬	-3205
▁씁	-3206
▁얻	-3207
▁옴	-3208
▁왕	-3209
▁왤	-3210
▁웬	-3211
▁젖	-3212
▁짱	-3213
▁폭	-3214
▁형	-3215
▁효	-3216
각이	-3217
걸로	-3218
겹살	-3219
공평	-3220
난다	-3221
답을	-3222
대한	-3223
도가	-3224
럽게	-3225
려서	-3226
만은	-3227
부여	-3228
분들	-3229
선을	-3230
센터	-3231
셔요	-3232
숙사	-3233
스는	-3234
시원	-3235
었길	-3236
육아	-3237
이스	-3238
있어	-3239
정보	-3240
정을	-3241
주면	-3242
지기	-3243
쳤어	-3244
통수	-3245
해진	-3246
활동	-3247
히는	-3248
▁가만	-3249
▁간단	-3250
▁감고	-3251
▁같지	-3252
▁걸리	-3253
▁걸어	-3254
▁구멍	-3255
▁귀가	-3256
▁그립	-3257
▁기간	-3258
▁기준	-3259
▁길러	-3260
▁깨요	-3261
▁나지	-3262
▁남은	-3263
▁너도	-3264
▁느낄	-3265
▁다닐	-3266
▁다리	-3267
▁다정	-3268
▁단계	-3269
▁답이	-3270
▁되돌	-3271
▁들고	-3272
▁딸기	-3273
▁똑똑	-3274
▁라고	-3275
▁로또	-3276
▁많지	-3277
▁매너	-3278
▁멀리	-3279
▁멀어	-3280
▁메모	-3281
▁모자	-3282
▁무색	-3283
▁문신	-3284
▁뭐라	-3285
▁바다	-3286
▁반응	-3287
▁받으	-3288
▁보낼	-3289
▁봉사	-3290
▁봤어	-3291
▁비난	-3292
▁비정	-3293
▁비참	-3294
▁빌려	-3295
▁사면	-3296
▁상상	-3297
▁새해	-3298
▁성별	-3299
▁성향	-3300
▁센스	-3301
▁솔로	-3302
▁수는	-3303
▁수면	-3304
▁순수	-3305
▁술이	-3306
▁시키	-3307
▁신뢰	-3308
▁신중	-3309
▁실내	-3310
▁심리	-3311
▁싸워	-3312
▁아플	-3313
▁악몽	-3314
▁애교	-3315
▁어이	-3316
▁에너	-3317
▁여우	-3318
▁연속	-3319
▁왤케	-3320
▁운전	-3321
▁웃을	-3322
▁웬수	-3323
▁은퇴	-3324
▁의심	-3325
▁의욕	-3326
▁이직	-3327
▁인턴	-3328
▁일만	-3329
▁입어	-3330
▁잇몸	-3331
▁있기	-3332
▁자괴	-3333
▁잘지	-3334
▁잤어	-3335
▁적금	-3336
▁정상	-3337
▁주기	-3338
▁지갑	-3339
▁지도	-3340
▁지진	-3341
▁착한	-3342
▁참견	-3343
▁찾는	-3344
▁천재	-3345
▁체육	-3346
▁쳐다	-3347
▁충격	-3348
▁치료	-3349
▁카드	-3350
▁큰일	-3351
▁통화	-3352
▁특별	-3353
▁하시	-3354
▁학생	-3355
▁한거	-3356
▁한숨	-3357
▁해봤	-3358
▁해외	-3359
▁허무	-3360
▁헛헛	-3361
▁후가	-3362
▁후에	-3363
가는데	-3364
개월이	-3365
개월째	-3366
겼는데	-3367
다는건	-3368
더라구	-3369
드리고	-3370
버렸네	-3371
봅시다	-3372
야할까	-3373
었네요	-3374
에게나	-3375
였는데	-3376
을텐데	-3377
이세요	-3378
점에서	-3379
하나봐	-3380
하라고	-3381
해야할	-3382
해하지	-3383
▁가벼운	-3384
▁가족이	-3385
▁강아지	-3386
▁같아서	-3387
▁걱정이	-3388
▁결혼할	-3389
▁고백할	-3390
▁그러고	-3391
▁그럼요	-3392
▁그리운	-3393
▁기숙사	-3394
▁기억이	-3395
▁기회를	-3396
▁끝났어	-3397
▁나만의	-3398
▁나쁘지	-3399
▁나아졌	-3400
▁나아질	-3401
▁나타날	-3402
▁남에게	-3403
▁누구든	-3404
▁눈치가	-3405
▁느끼는	-3406
▁늘어요	-3407
▁단단히	-3408
▁달콤한	-3409
▁당했어	-3410
▁대해서	-3411
▁돌아가	-3412
▁돌아올	-3413
▁두달이	-3414
▁들었어	-3415
▁따뜻할	-3416
▁마시면	-3417
▁만나도	-3418
▁만드는	-3419
▁만들고	-3420
▁많아서	-3421
▁맛나게	-3422
▁머리랑	-3423
▁머릿속	-3424
▁모든걸	-3425
▁모르게	-3426
▁뭐할까	-3427
▁불편해	-3428
▁사랑과	-3429
▁사랑도	-3430
▁사랑하	-3431
▁사야지	-3432
▁사이에	-3433
▁사정이	-3434
▁삼겹살	-3435
▁생기면	-3436
▁성공할	-3437
▁세상은	-3438
▁소화제	-3439
▁시작해	-3440
▁신나는	-3441
▁실수를	-3442
▁싶다고	-3443
▁썸인가	-3444
▁아까워	-3445
▁아니죠	-3446
▁아이돌	-3447
▁아침이	-3448
▁안되네	-3449
▁어떨까	-3450
▁없어도	-3451
▁여유가	-3452
▁여행도	-3453
▁연애로	-3454
▁영화관	-3455
▁오늘이	-3456
▁우연히	-3457
▁위해서	-3458
▁음식을	-3459
▁이루어	-3460
▁자격증	-3461
▁자신감	-3462
▁잘못된	-3463
▁잘못인	-3464
▁전화가	-3465
▁종교가	-3466
▁찾기를	-3467
▁청첩장	-3468
▁컨디션	-3469
▁하고싶	-3470
▁하는건	-3471
▁하늘을	-3472
▁하루도	-3473
▁하자고	-3474
▁현실의	-3475
▁혼자도	-3476
▁회사와	-3477
▁후회는	-3478
▁흐르고	-3479
렸나봐요	-3480
았습니다	-3481
하고싶어	-3482
하시군요	-3483
해야겠지	-3484
▁결혼해도	-3485
▁고백하는	-3486
▁고백하면	-3487
▁공부해서	-3488
▁관심사를	-3489
▁궁금해요	-3490
▁그렇다면	-3491
▁긍정적인	-3492
▁기다리지	-3493
▁까먹었다	-3494
▁놀러가고	-3495
▁느낌이야	-3496
▁데이트를	-3497
▁드릴게요	-3498
▁마셔야지	-3499
▁말이네요	-3500
▁말해볼까	-3501
▁목소리를	-3502
▁미세먼지	-3503
▁사람들은	-3504
▁생겼으면	-3505
▁세상에서	-3506
▁싫어하는	-3507
▁아니지만	-3508
▁알아보고	-3509
▁어디까지	-3510
▁오늘따라	-3511
▁왔습니다	-3512
▁우선순위	-3513
▁유지하는	-3514
▁의미부여	-3515
▁이번에는	-3516
▁잠수이별	-3517
▁좋아하나	-3518
▁좋았는데	-3519
▁중입니다	-3520
▁줘보세요	-3521
▁짝녀에게	-3522
▁추천해요	-3523
▁해야겠다	-3524
▁해야할지	-3525
▁행복해지	-3526
▁헤어지자	-3527
▁회원정보	-3528
▁관리하세요	-3529
▁괜찮아졌길	-3530
▁기다리는게	-3531
▁다르겠지요	-3532
▁말해주세요	-3533
▁먹어보세요	-3534
▁물어보는게	-3535
▁받아보세요	-3536
▁보내주세요	-3537
▁사랑이네요	-3538
▁생각만해도	-3539
▁생각했는데	-3540
▁소식이네요	-3541
▁아무렇지도	-3542
▁읽어보세요	-3543
▁있나봅니다	-3544
▁좋아하는거	-3545
▁챙겨드세요	-3546
▁취해보세요	-3547
▁사람인가봐요	-3548
▁사랑했나봐요	-3549
▁생각했나봐요	-3550
▁여자친구한테	-3551
▁좋아하나봐요	-3552
▁노력하겠습니다	-3553
▁거기까지인가봐요	-3554
▁검	-3555
▁꽤	-3556
▁끌	-3557
▁끓	-3558
▁낙	-3559
▁니	-3560
▁땅	-3561
▁땐	-3562
▁레	-3563
▁며	-3564
▁브	-3565
▁빈	-3566
▁색	-3567
▁쌩	-3568
▁앉	-3569
▁쟁	-3570
▁짠	-3571
▁쪼	-3572
▁칼	-3573
▁탄	-3574
▁탔	-3575
▁활	-3576
▁휘	-3577
▁흥	-3578
간다	-3579
같지	-3580
기력	-3581
길이	-3582
나나	-3583
났어	-3584
너무	-3585
년간	-3586
년을	-3587
담을	-3588
도를	-3589
되길	-3590
되지	-3591
드름	-3592
들지	-3593
라우	-3594
란게	-3595
랑이	-3596
렸을	-3597
료가	-3598
리러	-3599
만한	-3600
모습	-3601
복이	-3602
비가	-3603
셔야	-3604
소음	-3605
수있	-3606
순간	-3607
스피	-3608
시키	-3609
쓰는	-3610
양이	-3611
였을	-3612
우스	-3613
이래	-3614
인다	-3615
일차	-3616
자를	-3617
장에	-3618
적령	-3619
제가	-3620
종일	-3621
주도	-3622
지길	-3623
출발	-3624
침이	-3625
침표	-3626
콜릿	-3627
크닉	-3628
터가	-3629
토닥	-3630
트북	-3631
하철	-3632
호회	-3633
▁15	-3634
▁간사	-3635
▁강렬	-3636
▁거랑	-3637
▁거요	-3638
▁건조	-3639
▁검색	-3640
▁겨우	-3641
▁고칠	-3642
▁공개	-3643
▁그를	-3644
▁그저	-3645
▁기도	-3646
▁길어	-3647
▁깨닫	-3648
▁꿈은	-3649
▁끝도	-3650
▁끝에	-3651
▁끝인	-3652
▁나네	-3653
▁난방	-3654
▁남는	-3655
▁남지	-3656
▁냉정	-3657
▁너는	-3658
▁노는	-3659
▁놀죠	-3660
▁니가	-3661
▁단둘	-3662
▁달려	-3663
▁대리	-3664
▁덜할	-3665
▁덤덤	-3666
▁동성	-3667
▁든든	-3668
▁들이	-3669
▁때로	-3670
▁뛰어	-3671
▁마셨	-3672
▁막혀	-3673
▁말로	-3674
▁맛이	-3675
▁매주	-3676
▁멍청	-3677
▁못했	-3678
▁발목	-3679
▁버티	-3680
▁보게	-3681
▁봐서	-3682
▁부드	-3683
▁비싼	-3684
▁빠져	-3685
▁사겨	-3686
▁사내	-3687
▁살이	-3688
▁살지	-3689
▁상의	-3690
▁생리	-3691
▁서툴	-3692
▁섬유	-3693
▁성숙	-3694
▁세워	-3695
▁셀카	-3696
▁술만	-3697
▁신기	-3698
▁쓰지	-3699
▁아기	-3700
▁아깝	-3701
▁아쉽	-3702
▁알기	-3703
▁애를	-3704
▁약을	-3705
▁약이	-3706
▁어필	-3707
▁언니	-3708
▁오지	-3709
▁올해	-3710
▁와서	-3711
▁위기	-3712
▁유학	-3713
▁유효	-3714
▁의사	-3715
▁일년	-3716
▁입고	-3717
▁입지	-3718
▁있다	-3719
▁잡아	-3720
▁적게	-3721
▁전혀	-3722
▁정류	-3723
▁정의	-3724
▁제게	-3725
▁조건	-3726
▁종일	-3727
▁주식	-3728
▁줄까	-3729
▁줄어	-3730
▁즐겁	-3731
▁지울	-3732
▁지치	-3733
▁참지	-3734
▁책을	-3735
▁철벽	-3736
▁최근	-3737
▁축복	-3738
▁침대	-3739
▁코스	-3740
▁키가	-3741
▁택배	-3742
▁패턴	-3743
▁포근	-3744
▁풀렸	-3745
▁풀어	-3746
▁했나	-3747
▁호의	-3748
▁확신	-3749
▁회복	-3750
▁흔적	-3751
▁흘러	-3752
▁흥미	-3753
라우마	-3754
보아요	-3755
보여요	-3756
야하나	-3757
에서도	-3758
였으면	-3759
유증이	-3760
이예요	-3761
인데이	-3762
인인데	-3763
적이야	-3764
지네요	-3765
하다는	-3766
할거라	-3767
해야죠	-3768
했더니	-3769
했지만	-3770
▁가능한	-3771
▁가능해	-3772
▁가만히	-3773
▁같다고	-3774
▁것처럼	-3775
▁결정은	-3776
▁경험이	-3777
▁계획을	-3778
▁고마워	-3779
▁그녀와	-3780
▁그럴까	-3781
▁그럴만	-3782
▁그렇죠	-3783
▁그분이	-3784
▁기억을	-3785
▁끝나고	-3786
▁끝났네	-3787
▁남들이	-3788
▁노트북	-3789
▁느껴져	-3790
▁다음에	-3791
▁달달한	-3792
▁답장이	-3793
▁동료가	-3794
▁동호회	-3795
▁됐어요	-3796
▁되는게	-3797
▁될지도	-3798
▁뒤에서	-3799
▁떠나고	-3800
▁마음과	-3801
▁마침표	-3802
▁많으면	-3803
▁말라고	-3804
▁말하고	-3805
▁말해도	-3806
▁말해줘	-3807
▁맞는지	-3808
▁맞을까	-3809
▁멋져요	-3810
▁모든게	-3811
▁모른척	-3812
▁무기력	-3813
▁미련은	-3814
▁바라는	-3815
▁바라지	-3816
▁배우자	-3817
▁번호를	-3818
▁변하는	-3819
▁보는게	-3820
▁보여요	-3821
▁불공평	-3822
▁사는게	-3823
▁살아요	-3824
▁상담을	-3825
▁상대가	-3826
▁새출발	-3827
▁생각날	-3828
▁선물로	-3829
▁소리가	-3830
▁속상해	-3831
▁속에서	-3832
▁순간이	-3833
▁쉬어가	-3834
▁신경을	-3835
▁신경이	-3836
▁썸에서	-3837
▁아니고	-3838
▁아닐까	-3839
▁아름답	-3840
▁아빠가	-3841
▁아직은	-3842
▁아프지	-3843
▁아픔을	-3844
▁아픔의	-3845
▁앞두고	-3846
▁어렵네	-3847
▁없애는	-3848
▁여드름	-3849
▁여자는	-3850
▁여자와	-3851
▁여행가	-3852
▁연습이	-3853
▁영화보	-3854
▁오래된	-3855
▁우리가	-3856
▁우울해	-3857
▁운명이	-3858
▁이해해	-3859
▁인스타	-3860
▁일들이	-3861
▁일부터	-3862
▁일이죠	-3863
▁있을지	-3864
▁잊혀질	-3865
▁자세히	-3866
▁자체로	-3867
▁정도는	-3868
▁정리될	-3869
▁정말로	-3870
▁제주도	-3871
▁좋으시	-3872
▁중국어	-3873
▁증거를	-3874
▁지내는	-3875
▁지하철	-3876
▁차가워	-3877
▁처음에	-3878
▁초콜릿	-3879
▁출퇴근	-3880
▁친구도	-3881
▁키우고	-3882
▁태어났	-3883
▁피크닉	-3884
▁하네요	-3885
▁하려고	-3886
▁하루를	-3887
▁하지만	-3888
▁해야죠	-3889
▁해주고	-3890
▁했어요	-3891
▁확인해	-3892
▁환승은	-3893
▁힘내지	-3894
갈거예요	-3895
개월만에	-3896
이니까요	-3897
하니까요	-3898
하시네요	-3899
▁결혼적령	-3900
▁고백하고	-3901
▁그러게요	-3902
▁남자한테	-3903
▁노력하면	-3904
▁답답하네	-3905
▁당연하죠	-3906
▁될거예요	-3907
▁듯합니다	-3908
▁모르는게	-3909
▁무시하는	-3910
▁물어봐요	-3911
▁미친듯이	-3912
▁별로라고	-3913
▁봉사활동	-3914
▁비교하지	-3915
▁빠를수록	-3916
▁사람인데	-3917
▁사랑에는	-3918
▁사이에서	-3919
▁사회생활	-3920
▁상처받지	-3921
▁생각할까	-3922
▁생각해도	-3923
▁성공하길	-3924
▁시원하게	-3925
▁신혼여행	-3926
▁아니네요	-3927
▁안되겠지	-3928
▁안되는데	-3929
▁언제까지	-3930
▁엄마한테	-3931
▁여자들이	-3932
▁연락처를	-3933
▁연애하고	-3934
▁이별하고	-3935
▁이제라도	-3936
▁있겠네요	-3937
▁있었나요	-3938
▁잡으세요	-3939
▁전화하는	-3940
▁좋을까요	-3941
▁준비하고	-3942
▁지금보다	-3943
▁취미생활	-3944
▁친구라고	-3945
▁카페에서	-3946
▁트라우마	-3947
▁표현하는	-3948
▁필요했을	-3949
▁하나라도	-3950
▁하루에도	-3951
▁행복해질	-3952
▁헤아리지	-3953
▁헤어짐을	-3954
▁혼자만의	-3955
▁화장하는	-3956
▁후유증이	-3957
▁힘들지요	-3958
▁가능합니다	-3959
▁간접적이든	-3960
▁그랬나봐요	-3961
▁기분전환을	-3962
▁누구에게나	-3963
▁다음부터는	-3964
▁떠나보세요	-3965
▁만남이었길	-3966
▁말씀하세요	-3967
▁맞을거예요	-3968
▁받아들이기	-3969
▁밝혀보세요	-3970
▁버텨보세요	-3971
▁보여주세요	-3972
▁부담스러운	-3973
▁사람이라면	-3974
▁생각해봐요	-3975
▁시작하세요	-3976
▁않았나봐요	-3977
▁억지로라도	-3978
▁이야기해도	-3979
▁정해보세요	-3980
▁좋아했는데	-3981
▁주기적으로	-3982
▁직접적이든	-3983
▁참아보세요	-3984
▁축하합니다	-3985
▁풀어보세요	-3986
▁하지마세요	-3987
▁힘들어하지	-3988
▁기다려주세요	-3989
▁발렌타인데이	-3990
▁사람이니까요	-3991
▁위로봇입니다	-3992
▁필요하겠어요	-3993
▁결정이었을텐데	-3994
▁거기까지였나봐요	-3995
▁곰	-3996
▁곱	-3997
▁광	-3998
▁꾹	-3999
▁낚	-4000
▁낳	-4001
▁낼	-4002
▁닫	-4003
▁득	-4004
▁롱	-4005
▁묻	-4006
▁밖	-4007
▁벽	-4008
▁쉴	-4009
▁슈	-4010
▁씨	-4011
▁액	-4012
▁엉	-4013
▁옳	-4014
▁임	-4015
▁찜	-4016
▁찼	-4017
▁황	-4018
▁흑	-4019
거같	-4020
거지	-4021
건데	-4022
겠음	-4023
겨워	-4024
곰히	-4025
관계	-4026
관리	-4027
교통	-4028
근차	-4029
기업	-4030
끄러	-4031
끼리	-4032
나네	-4033
다른	-4034
대체	-4035
대회	-4036
도는	-4037
돌아	-4038
돼서	-4039
듯한	-4040
라서	-4041
로리	-4042
만나	-4043
매일	-4044
면증	-4045
바이	-4046
바퀴	-4047
벤트	-4048
상담	-4049
선물	-4050
세포	-4051
수가	-4052
수를	-4053
수증	-4054
심을	-4055
였던	-4056
와서	-4057
와요	-4058
이크	-4059
인상	-4060
작정	-4061
잖아	-4062
저리	-4063
절한	-4064
젯밤	-4065
졌네	-4066
조심	-4067
지런	-4068
지죠	-4069
질방	-4070
짐에	-4071
청소	-4072
카드	-4073
터디	-4074
트업	-4075
트콘	-4076
표현	-4077
하자	-4078
학기	-4079
한잔	-4080
해를	-4081
했길	-4082
행기	-4083
형이	-4084
화가	-4085
히려	-4086
▁20	-4087
▁ᄒᄒ	-4088
▁가늠	-4089
▁가득	-4090
▁가려	-4091
▁가을	-4092
▁갈때	-4093
▁감당	-4094
▁감히	-4095
▁갔어	-4096
▁강습	-4097
▁갖지	-4098
▁거둘	-4099
▁것들	-4100
▁고고	-4101
▁고기	-4102
▁고장	-4103
▁고치	-4104
▁공감	-4105
▁관련	-4106
▁귀를	-4107
▁금연	-4108
▁기프	-4109
▁깊게	-4110
▁깜빡	-4111
▁꾸며	-4112
▁끝날	-4113
▁나누	-4114
▁나빠	-4115
▁낭비	-4116
▁넘어	-4117
▁놀다	-4118
▁누굴	-4119
▁눈썹	-4120
▁느낀	-4121
▁늦어	-4122
▁단순	-4123
▁단호	-4124
▁대답	-4125
▁대우	-4126
▁대중	-4127
▁대체	-4128
▁도망	-4129
▁동감	-4130
▁득템	-4131
▁들리	-4132
▁들을	-4133
▁때려	-4134
▁떠났	-4135
▁로봇	-4136
▁막차	-4137
▁많네	-4138
▁많다	-4139
▁말아	-4140
▁말한	-4141
▁망가	-4142
▁맞지	-4143
▁맞춤	-4144
▁매번	-4145
▁먹지	-4146
▁며칠	-4147
▁몇일	-4148
▁모으	-4149
▁무릎	-4150
▁뭐하	-4151
▁바디	-4152
▁밤에	-4153
▁베풀	-4154
▁변해	-4155
▁보름	-4156
▁부부	-4157
▁분노	-4158
▁분들	-4159
▁불타	-4160
▁빠른	-4161
▁빼고	-4162
▁살면	-4163
▁삶의	-4164
▁서류	-4165
▁성덕	-4166
▁성적	-4167
▁성형	-4168
▁소액	-4169
▁소유	-4170
▁소주	-4171
▁속은	-4172
▁수염	-4173
▁수영	-4174
▁수학	-4175
▁쉬어	-4176
▁쉽진	-4177
▁슈퍼	-4178
▁스테	-4179
▁스팸	-4180
▁슬픔	-4181
▁실례	-4182
▁싸움	-4183
▁쌩얼	-4184
▁썸만	-4185
▁썸일	-4186
▁썼어	-4187
▁씻고	-4188
▁아님	-4189
▁아련	-4190
▁아물	-4191
▁아주	-4192
▁안가	-4193
▁안에	-4194
▁알뜰	-4195
▁애석	-4196
▁애틋	-4197
▁어둠	-4198
▁어떠	-4199
▁연휴	-4200
▁예전	-4201
▁오락	-4202
▁오토	-4203
▁온다	-4204
▁올까	-4205
▁옷이	-4206
▁왕따	-4207
▁요구	-4208
▁요금	-4209
▁욕심	-4210
▁우린	-4211
▁운을	-4212
▁웃어	-4213
▁육아	-4214
▁음식	-4215
▁의견	-4216
▁이것	-4217
▁이뻐	-4218
▁이쁜	-4219
▁인공	-4220
▁일단	-4221
▁일에	-4222
▁잃어	-4223
▁입이	-4224
▁자는	-4225
▁자면	-4226
▁자취	-4227
▁잠재	-4228
▁잡는	-4229
▁전세	-4230
▁전역	-4231
▁점은	-4232
▁점이	-4233
▁조용	-4234
▁조차	-4235
▁조카	-4236
▁좋게	-4237
▁좋고	-4238
▁주름	-4239
▁중고	-4240
▁증오	-4241
▁지냈	-4242
▁지키	-4243
▁진지	-4244
▁짧지	-4245
▁찌질	-4246
▁차갑	-4247
▁차례	-4248
▁참아	-4249
▁창업	-4250
▁책임	-4251
▁초기	-4252
▁추석	-4253
▁추운	-4254
▁치고	-4255
▁치맥	-4256
▁치열	-4257
▁치유	-4258
▁키워	-4259
▁타기	-4260
▁타던	-4261
▁탈출	-4262
▁탈퇴	-4263
▁티가	-4264
▁티를	-4265
▁평가	-4266
▁평온	-4267
▁표시	-4268
▁푸는	-4269
▁필름	-4270
▁하든	-4271
▁학점	-4272
▁한강	-4273
▁합격	-4274
▁해낼	-4275
▁했다	-4276
▁허리	-4277
▁형편	-4278
▁혼란	-4279
▁혼술	-4280
▁화내	-4281
▁희생	-4282
▁힘껏	-4283
것같아	-4284
겠는데	-4285
교통을	-4286
근차근	-4287
년만에	-4288
년이란	-4289
되는데	-4290
들에게	-4291
방법을	-4292
봐야지	-4293
생활이	-4294
셨군요	-4295
스러울	-4296
스크림	-4297
스피싱	-4298
시간이	-4299
심으로	-4300
었나봐	-4301
영수증	-4302
우니까	-4303
으려면	-4304
이겠죠	-4305
인건가	-4306
적이고	-4307
적이죠	-4308
졌는데	-4309
지말고	-4310
하더니	-4311
하려는	-4312
할거야	-4313
할까봐	-4314
해주면	-4315
했나봐	-4316
▁가사가	-4317
▁가짐에	-4318
▁각자의	-4319
▁감정은	-4320
▁갔는데	-4321
▁거울을	-4322
▁걱정은	-4323
▁건가요	-4324
▁건강이	-4325
▁걸까요	-4326
▁것들이	-4327
▁견디고	-4328
▁결정할	-4329
▁경우가	-4330
▁경우도	-4331
▁계절이	-4332
▁고맙다	-4333
▁곰곰히	-4334
▁괴로워	-4335
▁괴롭게	-4336
▁군침이	-4337
▁궁금할	-4338
▁권태기	-4339
▁귀엽게	-4340
▁그러는	-4341
▁그분의	-4342
▁기간이	-4343
▁기대가	-4344
▁기분은	-4345
▁길에서	-4346
▁나가기	-4347
▁낫겠지	-4348
▁내일도	-4349
▁너무나	-4350
▁넘었네	-4351
▁노래를	-4352
▁놀아줘	-4353
▁누구도	-4354
▁능력을	-4355
▁당연히	-4356
▁대화가	-4357
▁더러워	-4358
▁도네요	-4359
▁도대체	-4360
▁도와주	-4361
▁도전해	-4362
▁되겠지	-4363
▁두근거	-4364
▁두번째	-4365
▁드시고	-4366
▁듣는데	-4367
▁떠보는	-4368
▁뜻대로	-4369
▁마주쳐	-4370
▁마주치	-4371
▁만나길	-4372
▁만나러	-4373
▁만남과	-4374
▁만남이	-4375
▁말투가	-4376
▁맛있을	-4377
▁망했어	-4378
▁머리는	-4379
▁멋지게	-4380
▁모아서	-4381
▁못하면	-4382
▁무거워	-4383
▁무엇을	-4384
▁무작정	-4385
▁문제는	-4386
▁문제로	-4387
▁미래에	-4388
▁바쁘면	-4389
▁방법을	-4390
▁배우면	-4391
▁버려야	-4392
▁변하지	-4393
▁별로야	-4394
▁보면서	-4395
▁보아요	-4396
▁보이는	-4397
▁부딪혔	-4398
▁부지런	-4399
▁불면증	-4400
▁비행기	-4401
▁사귀면	-4402
▁사람만	-4403
▁살면서	-4404
▁상처는	-4405
▁새학기	-4406
▁생리통	-4407
▁서로가	-4408
▁선배가	-4409
▁성공을	-4410
▁소식이	-4411
▁소심해	-4412
▁술먹고	-4413
▁쉬어야	-4414
▁스터디	-4415
▁시간에	-4416
▁시간표	-4417
▁실수할	-4418
▁싫다고	-4419
▁심경의	-4420
▁싸우면	-4421
▁아닌거	-4422
▁아프고	-4423
▁아픔이	-4424
▁안경테	-4425
▁안녕히	-4426
▁않지만	-4427
▁알았어	-4428
▁약속을	-4429
▁양해를	-4430
▁얘기를	-4431
▁어디로	-4432
▁어젯밤	-4433
▁언제든	-4434
▁얼굴이	-4435
▁없겠지	-4436
▁없는게	-4437
▁없지만	-4438
▁영원한	-4439
▁오히려	-4440
▁월급이	-4441
▁월요일	-4442
▁의미가	-4443
▁의미를	-4444
▁의외로	-4445
▁의욕이	-4446
▁이벤트	-4447
▁이해할	-4448
▁인상이	-4449
▁일어날	-4450
▁있는거	-4451
▁있어야	-4452
▁자괴감	-4453
▁자기도	-4454
▁자신과	-4455
▁자존감	-4456
▁잘해야	-4457
▁재회를	-4458
▁접어두	-4459
▁정규직	-4460
▁좋아질	-4461
▁준비중	-4462
▁중요할	-4463
▁지겨워	-4464
▁지나간	-4465
▁진심이	-4466
▁집중이	-4467
▁집착해	-4468
▁짜장면	-4469
▁찜질방	-4470
▁차이가	-4471
▁찾아오	-4472
▁첫인상	-4473
▁최근에	-4474
▁최대한	-4475
▁최선을	-4476
▁추억은	-4477
▁치과에	-4478
▁커피향	-4479
▁타다가	-4480
▁태어나	-4481
▁택시비	-4482
▁터놓고	-4483
▁퇴근길	-4484
▁특별한	-4485
▁파먹기	-4486
▁피부가	-4487
▁하거나	-4488
▁하루에	-4489
▁학원을	-4490
▁행동이	-4491
▁화이트	-4492
▁회사에	-4493
▁휴가가	-4494
▁휴식을	-4495
▁흥미를	-4496
▁힘든데	-4497
▁힘들고	-4498
되겠네요	-4499
버리세요	-4500
야하는데	-4501
었겠네요	-4502
었습니다	-4503
왔습니다	-4504
의하세요	-4505
▁가능할까	-4506
▁고민하게	-4507
▁고쳐쓰는	-4508
▁공부하기	-4509
▁공허함이	-4510
▁괜찮다면	-4511
▁괜찮지만	-4512
▁그럴지도	-4513
▁그만하고	-4514
▁기프트콘	-4515
▁깨끗하게	-4516
▁끝났으면	-4517
▁나을지도	-4518
▁나한테만	-4519
▁남사친이	-4520
▁노력하고	-4521
▁다가가는	-4522
▁다양하게	-4523
▁당신에게	-4524
▁돌아가고	-4525
▁드라이브	-4526
▁만들려고	-4527
▁말해봐요	-4528
▁맛있어요	-4529
▁매일매일	-4530
▁먹었는데	-4531
▁물어보고	-4532
▁받아보는	-4533
▁부드럽게	-4534
▁비밀번호	-4535
▁사귀어도	-4536
▁사랑받고	-4537
▁사랑하기	-4538
▁사보세요	-4539
▁사이인데	-4540
▁상대방도	-4541
▁생각나고	-4542
▁선생님이	-4543
▁세상에는	-4544
▁센스있는	-4545
▁셀프웨딩	-4546
▁소개시켜	-4547
▁스타트업	-4548
▁시작해도	-4549
▁신경쓰는	-4550
▁실수하지	-4551
▁싫어하지	-4552
▁싸우면서	-4553
▁아니라는	-4554
▁않겠어요	-4555
▁애정표현	-4556
▁얼마든지	-4557
▁연락해서	-4558
▁오락가락	-4559
▁오토바이	-4560
▁운동으로	-4561
▁응원해요	-4562
▁의미있는	-4563
▁이기적인	-4564
▁이야기해	-4565
▁익숙해질	-4566
▁인정받고	-4567
▁잊는다는	-4568
▁전남친이	-4569
▁좋습니다	-4570
▁좋아하지	-4571
▁지나갔길	-4572
▁진정으로	-4573
▁집안일을	-4574
▁집착하는	-4575
▁차근차근	-4576
▁차리세요	-4577
▁차분하게	-4578
▁처음부터	-4579
▁처음에는	-4580
▁첫사랑이	-4581
▁체육대회	-4582
▁추억으로	-4583
▁추천해줘	-4584
▁포기하는	-4585
▁하루종일	-4586
▁학교에서	-4587
▁행복하길	-4588
▁행복할까	-4589
▁혼자서도	-4590
▁회사에는	-4591
▁힘들지도	-4592
드려보세요	-4593
했나봅니다	-4594
▁꾸며보세요	-4595
▁달라지는게	-4596
▁대중교통을	-4597
▁되었나봐요	-4598
▁들여보세요	-4599
▁마음이라도	-4600
▁많은가봐요	-4601
▁못했나봐요	-4602
▁벗어나세요	-4603
▁보이스피싱	-4604
▁붙여보세요	-4605
▁빌려보세요	-4606
▁사랑한다는	-4607
▁사랑할수록	-4608
▁상관없어요	-4609
▁선택일거라	-4610
▁스트레칭을	-4611
▁습관이네요	-4612
▁신고하세요	-4613
▁심하겠네요	-4614
▁심한가봐요	-4615
▁아니랍니다	-4616
▁아닌가봐요	-4617
▁아이스크림	-4618
▁안녕하세요	-4619
▁안타깝네요	-4620
▁않을거예요	-4621
▁올려달라고	-4622
▁웃어보세요	-4623
▁재미있어요	-4624
▁정류장에서	-4625
▁좋아한다고	-4626
▁준비하세요	-4627
▁줄여보세요	-4628
▁집중하세요	-4629
▁청해보세요	-4630
▁추천합니다	-4631
▁충전하세요	-4632
▁헤어지는게	-4633
▁헤어지세요	-4634
▁현금영수증	-4635
▁화이트데이	-4636
▁힘들거예요	-4637
▁걱정되겠네요	-4638
▁남자친구한테	-4639
▁시간이겠네요	-4640
▁연습해보세요	-4641
▁예민한가봐요	-4642
▁이별했습니다	-4643
▁이용해주세요	-4644
▁정리해보세요	-4645
▁좋아할거예요	-4646
▁피곤한가봐요	-4647
▁필요한가봐요	-4648
▁힘드신가봐요	-4649
▁두근거리겠어요	-4650
▁부지런하시네요	-4651
▁심호흡해보세요	-4652
ᄏᄏ	-4653
▁긁	-4654
▁끼	-4655
▁뉴	-4656
▁덕	-4657
▁떡	-4658
▁똥	-4659
▁랜	-4660
▁밑	-4661
▁밟	-4662
▁북	-4663
▁빚	-4664
▁빵	-4665
▁삐	-4666
▁승	-4667
▁씌	-4668
▁엮	-4669
▁옥	-4670
▁왠	-4671
▁쪽	-4672
▁쫌	-4673
▁층	-4674
▁켜	-4675
▁쿨	-4676
▁탓	-4677
▁팀	-4678
▁퍼	-4679
▁헌	-4680
▁훈	-4681
갔네	-4682
걸요	-4683
게임	-4684
고가	-4685
김에	-4686
나가	-4687
난거	-4688
난히	-4689
냐구	-4690
노래	-4691
능에	-4692
다리	-4693
달콩	-4694
담화	-4695
동산	-4696
되기	-4697
두절	-4698
드가	-4699
드시	-4700
레스	-4701
력은	-4702
련만	-4703
롭게	-4704
르네	-4705
모가	-4706
무게	-4707
문이	-4708
버려	-4709
버리	-4710
버시	-4711
봤어	-4712
분간	-4713
사는	-4714
사에	-4715
살이	-4716
서야	-4717
셨나	-4718
수저	-4719
숭숭	-4720
식에	-4721
심한	-4722
쏟아	-4723
았네	-4724
았다	-4725
연제	-4726
였나	-4727
오를	-4728
와의	-4729
왔네	-4730
우는	-4731
우니	-4732
웠을	-4733
으려	-4734
으며	-4735
은거	-4736
을때	-4737
의금	-4738
있나	-4739
있음	-4740
있지	-4741
저분	-4742
정리	-4743
조절	-4744
조차	-4745
주째	-4746
줘야	-4747
증을	-4748
진다	-4749
질이	-4750
참고	-4751
카락	-4752
트가	-4753
플라	-4754
하실	-4755
한번	-4756
히네	-4757
힌다	-4758
▁가라	-4759
▁가볍	-4760
▁가스	-4761
▁간식	-4762
▁감수	-4763
▁감싸	-4764
▁갚아	-4765
▁개념	-4766
▁거는	-4767
▁걸려	-4768
▁걸린	-4769
▁것만	-4770
▁격려	-4771
▁경제	-4772
▁곳을	-4773
▁괜한	-4774
▁괴로	-4775
▁구분	-4776
▁구속	-4777
▁그가	-4778
▁기댈	-4779
▁길게	-4780
▁길은	-4781
▁김치	-4782
▁꺼내	-4783
▁꼼꼼	-4784
▁꿈같	-4785
▁끄는	-4786
▁끓여	-4787
▁끝낼	-4788
▁끝일	-4789
▁나날	-4790
▁나약	-4791
▁낚시	-4792
▁남길	-4793
▁낭만	-4794
▁내게	-4795
▁내기	-4796
▁내내	-4797
▁높아	-4798
▁눈은	-4799
▁능력	-4800
▁늦는	-4801
▁늦잠	-4802
▁다짐	-4803
▁다툼	-4804
▁단톡	-4805
▁담긴	-4806
▁답은	-4807
▁더욱	-4808
▁돈은	-4809
▁되기	-4810
▁듣기	-4811
▁들까	-4812
▁들려	-4813
▁들면	-4814
▁등산	-4815
▁등을	-4816
▁떨쳐	-4817
▁랜선	-4818
▁리폼	-4819
▁만에	-4820
▁맘을	-4821
▁맞나	-4822
▁먹으	-4823
▁먼지	-4824
▁면허	-4825
▁명품	-4826
▁모를	-4827
▁모쏠	-4828
▁모임	-4829
▁목이	-4830
▁몸에	-4831
▁무관	-4832
▁무의	-4833
▁무한	-4834
▁물건	-4835
▁뭐임	-4836
▁미용	-4837
▁미칠	-4838
▁미화	-4839
▁바늘	-4840
▁바지	-4841
▁반갑	-4842
▁받기	-4843
▁방문	-4844
▁배울	-4845
▁버리	-4846
▁번씩	-4847
▁벌고	-4848
▁벽에	-4849
▁변한	-4850
▁보단	-4851
▁보며	-4852
▁복전	-4853
▁봄은	-4854
▁부디	-4855
▁부여	-4856
▁불금	-4857
▁비하	-4858
▁빠졌	-4859
▁빨래	-4860
▁뽑기	-4861
▁사냐	-4862
▁사탕	-4863
▁살찐	-4864
▁상메	-4865
▁서툰	-4866
▁설렜	-4867
▁설명	-4868
▁세월	-4869
▁손에	-4870
▁손톱	-4871
▁손해	-4872
▁수상	-4873
▁수업	-4874
▁수준	-4875
▁술은	-4876
▁숨막	-4877
▁슬쩍	-4878
▁시골	-4879
▁시도	-4880
▁식단	-4881
▁신발	-4882
▁심어	-4883
▁썸인	-4884
▁쓸쓸	-4885
▁씁쓸	-4886
▁아마	-4887
▁아팠	-4888
▁안주	-4889
▁알지	-4890
▁알콩	-4891
▁애기	-4892
▁양말	-4893
▁어깨	-4894
▁어른	-4895
▁어리	-4896
▁염탐	-4897
▁예감	-4898
▁올랐	-4899
▁옷을	-4900
▁와닿	-4901
▁왜그	-4902
▁요리	-4903
▁웃겨	-4904
▁유행	-4905
▁은행	-4906
▁이모	-4907
▁이틀	-4908
▁일반	-4909
▁읽씹	-4910
▁입에	-4911
▁있음	-4912
▁자도	-4913
▁작아	-4914
▁잔인	-4915
▁잘살	-4916
▁잘자	-4917
▁쟁취	-4918
▁적어	-4919
▁적이	-4920
▁전기	-4921
▁전해	-4922
▁제안	-4923
▁좋으	-4924
▁주차	-4925
▁주택	-4926
▁지낼	-4927
▁지루	-4928
▁지옥	-4929
▁진행	-4930
▁질질	-4931
▁짐을	-4932
▁집앞	-4933
▁짧게	-4934
▁찍고	-4935
▁착잡	-4936
▁참석	-4937
▁참을	-4938
▁처럼	-4939
▁첫눈	-4940
▁추스	-4941
▁층간	-4942
▁치매	-4943
▁치워	-4944
▁컴퓨	-4945
▁코가	-4946
▁타다	-4947
▁털어	-4948
▁특징	-4949
▁틀린	-4950
▁티내	-4951
▁편의	-4952
▁포장	-4953
▁표정	-4954
▁피자	-4955
▁한가	-4956
▁한계	-4957
▁한국	-4958
▁한창	-4959
▁한켠	-4960
▁할줄	-4961
▁해줄	-4962
▁호칭	-4963
▁흑역	-4964
거겠죠	-4965
겠다고	-4966
끄러워	-4967
납니다	-4968
냈어요	-4969
년연애	-4970
느냐에	-4971
데이트	-4972
라는게	-4973
릅니다	-4974
받았어	-4975
보다는	-4976
생인데	-4977
셔야죠	-4978
식하는	-4979
신가요	-4980
았으면	-4981
었나요	-4982
유연제	-4983
이라서	-4984
인걸까	-4985
인데요	-4986
정적인	-4987
지세요	-4988
집니다	-4989
터리가	-4990
테리어	-4991
하겠지	-4992
한건가	-4993
해졌어	-4994
해주지	-4995
했네요	-4996
▁가까운	-4997
▁강렬한	-4998
▁거라고	-4999
▁거절의	-5000
▁걱정할	-5001
▁것들을	-5002
▁게임을	-5003
▁고마운	-5004
▁고백은	-5005
▁고치고	-5006
▁공부할	-5007
▁그러게	-5008
▁그리울	-5009
▁그리움	-5010
▁긁었어	-5011
▁금수저	-5012
▁기다렸	-5013
▁기다림	-5014
▁기대를	-5015
▁기본이	-5016
▁기억의	-5017
▁끝내고	-5018
▁끝인가	-5019
▁나가야	-5020
▁나갔어	-5021
▁남자도	-5022
▁너한테	-5023
▁누구랑	-5024
▁눈에서	-5025
▁다가오	-5026
▁다르죠	-5027
▁단둘이	-5028
▁달려있	-5029
▁당분간	-5030
▁당연한	-5031
▁대화로	-5032
▁되는거	-5033
▁뒤숭숭	-5034
▁뒤통수	-5035
▁뒷담화	-5036
▁드리고	-5037
▁드시면	-5038
▁들어도	-5039
▁들어서	-5040
▁들어올	-5041
▁들어줄	-5042
▁들으면	-5043
▁때문일	-5044
▁때예요	-5045
▁똑같아	-5046
▁마셔도	-5047
▁마실까	-5048
▁마음만	-5049
▁만나요	-5050
▁만나자	-5051
▁만남에	-5052
▁말했어	-5053
▁망했다	-5054
▁맞는거	-5055
▁맞아요	-5056
▁맞춤법	-5057
▁매력이	-5058
▁먹었어	-5059
▁먹자고	-5060
▁먼지가	-5061
▁멀어진	-5062
▁목소리	-5063
▁몸무게	-5064
▁못참고	-5065
▁못해서	-5066
▁못했던	-5067
▁물리적	-5068
▁뭐하는	-5069
▁미끄러	-5070
▁미련도	-5071
▁믿음을	-5072
▁바꿀까	-5073
▁바뀌게	-5074
▁바르고	-5075
▁바빠도	-5076
▁바빠서	-5077
▁밖에서	-5078
▁반응이	-5079
▁받아야	-5080
▁배고프	-5081
▁버텨요	-5082
▁베터리	-5083
▁보냈어	-5084
▁보자고	-5085
▁볼게요	-5086
▁봤는데	-5087
▁부탁드	-5088
▁빌어요	-5089
▁빠지는	-5090
▁뻔했어	-5091
▁사겨도	-5092
▁사귀던	-5093
▁사라질	-5094
▁살아가	-5095
▁상사가	-5096
▁상처도	-5097
▁서운해	-5098
▁서툴러	-5099
▁선에서	-5100
▁선택할	-5101
▁선톡을	-5102
▁세상이	-5103
▁소원을	-5104
▁속도를	-5105
▁슬프게	-5106
▁습관이	-5107
▁시계는	-5108
▁신경써	-5109
▁싫어도	-5110
▁심장이	-5111
▁싶다는	-5112
▁싸우는	-5113
▁아무말	-5114
▁아픔은	-5115
▁안하지	-5116
▁않는게	-5117
▁어디든	-5118
▁어려울	-5119
▁어렵죠	-5120
▁어렸을	-5121
▁어리게	-5122
▁어제와	-5123
▁어쩔수	-5124
▁없는거	-5125
▁여자도	-5126
▁여행은	-5127
▁연락오	-5128
▁연락할	-5129
▁연애의	-5130
▁연인은	-5131
▁옆에서	-5132
▁예민한	-5133
▁오빠가	-5134
▁요즘은	-5135
▁우리집	-5136
▁유난히	-5137
▁유부남	-5138
▁이기적	-5139
▁이름이	-5140
▁인연은	-5141
▁입어도	-5142
▁있었을	-5143
▁잘못을	-5144
▁잘못이	-5145
▁재밌는	-5146
▁재밌다	-5147
▁재밌어	-5148
▁재회는	-5149
▁정도로	-5150
▁존재를	-5151
▁좋을지	-5152
▁좋지요	-5153
▁주면서	-5154
▁주제를	-5155
▁줄어들	-5156
▁지나가	-5157
▁지나면	-5158
▁지내길	-5159
▁지르고	-5160
▁지우고	-5161
▁지저분	-5162
▁짜증날	-5163
▁차갑게	-5164
▁차별해	-5165
▁차이는	-5166
▁찾아온	-5167
▁추억에	-5168
▁축의금	-5169
▁친구네	-5170
▁친구는	-5171
▁친구와	-5172
▁친해지	-5173
▁친해질	-5174
▁카톡을	-5175
▁카톡이	-5176
▁편하고	-5177
▁평소에	-5178
▁프라이	-5179
▁프로필	-5180
▁피해를	-5181
▁하기도	-5182
▁하는지	-5183
▁하다가	-5184
▁하루가	-5185
▁하우스	-5186
▁한다는	-5187
▁한숨만	-5188
▁함께한	-5189
▁함께할	-5190
▁함부로	-5191
▁해보고	-5192
▁해야돼	-5193
▁해야할	-5194
▁행운을	-5195
▁현실과	-5196
▁혼자인	-5197
▁화장품	-5198
▁후회를	-5199
▁휴가를	-5200
▁힘든거	-5201
러보세요	-5202
뿐이에요	-5203
셨겠어요	-5204
시겠네요	-5205
지겠네요	-5206
테니까요	-5207
해야겠다	-5208
해야하는	-5209
해지세요	-5210
▁가능하면	-5211
▁가야겠죠	-5212
▁가치관이	-5213
▁거르세요	-5214
▁것입니다	-5215
▁결정이었	-5216
▁관리하는	-5217
▁권태기가	-5218
▁그대로의	-5219
▁기대하지	-5220
▁기억에서	-5221
▁나가볼까	-5222
▁나아졌길	-5223
▁낭비하지	-5224
▁놀이동산	-5225
▁달라진게	-5226
▁대화하는	-5227
▁도전하는	-5228
▁두려움을	-5229
▁두셨네요	-5230
▁들어왔어	-5231
▁떠오르는	-5232
▁마음정리	-5233
▁마주치는	-5234
▁만나는데	-5235
▁만들어서	-5236
▁맞추세요	-5237
▁머리카락	-5238
▁먹으면서	-5239
▁모르겠네	-5240
▁못하는게	-5241
▁물어보면	-5242
▁미워하지	-5243
▁미치겠네	-5244
▁미치겠어	-5245
▁믿으세요	-5246
▁받아들일	-5247
▁보고싶네	-5248
▁보이네요	-5249
▁비난하지	-5250
▁사랑해요	-5251
▁살다보면	-5252
▁상대방에	-5253
▁생각으로	-5254
▁생각해서	-5255
▁생겼네요	-5256
▁생일이네	-5257
▁서류에서	-5258
▁선택이길	-5259
▁성공하고	-5260
▁수학여행	-5261
▁시작이죠	-5262
▁시작하기	-5263
▁신경쓰여	-5264
▁신중하게	-5265
▁심호흡을	-5266
▁쓰레기야	-5267
▁아는데도	-5268
▁아니었을	-5269
▁아닌가요	-5270
▁알콩달콩	-5271
▁어떻게든	-5272
▁어떻게해	-5273
▁언젠가는	-5274
▁없겠지요	-5275
▁여사친이	-5276
▁연락두절	-5277
▁연애하는	-5278
▁연애하면	-5279
▁연인으로	-5280
▁오늘부터	-5281
▁왔나봐요	-5282
▁운명적인	-5283
▁이별이란	-5284
▁이별준비	-5285
▁이상형은	-5286
▁이상형이	-5287
▁이어나가	-5288
▁인생이죠	-5289
▁인정하고	-5290
▁일어나는	-5291
▁일어나서	-5292
▁있었는데	-5293
▁있으니까	-5294
▁있을게요	-5295
▁잊으려고	-5296
▁잊혀지지	-5297
▁자신으로	-5298
▁자유로워	-5299
▁자존감을	-5300
▁잘하는게	-5301
▁잘해주는	-5302
▁재미없어	-5303
▁재미있게	-5304
▁적응해야	-5305
▁정리하고	-5306
▁정확하게	-5307
▁좋았으면	-5308
▁좋으련만	-5309
▁주변에서	-5310
▁주식으로	-5311
▁중요한데	-5312
▁즐기면서	-5313
▁짝남에게	-5314
▁짝사랑을	-5315
▁층간소음	-5316
▁카톡으로	-5317
▁콩깍지가	-5318
▁퇴근하고	-5319
▁편하겠죠	-5320
▁필요한게	-5321
▁한달하고	-5322
▁해외여행	-5323
▁헤어지기	-5324
▁헤어지는	-5325
▁헤어짐이	-5326
▁후폭풍은	-5327
▁후회하기	-5328
▁후회해도	-5329
▁힘들었죠	-5330
담해보세요	-5331
었으니까요	-5332
하신가봐요	-5333
▁가능하겠죠	-5334
▁걱정된다고	-5335
▁걸리겠지만	-5336
▁결혼하는데	-5337
▁과정이에요	-5338
▁구해보세요	-5339
▁기원합니다	-5340
▁남았나봐요	-5341
▁남자애한테	-5342
▁남자친구를	-5343
▁대해보세요	-5344
▁두려워하지	-5345
▁들어주세요	-5346
▁맞춰보세요	-5347
▁맡겨보세요	-5348
▁먹어야겠다	-5349
▁미세먼지가	-5350
▁바꿔보세요	-5351
▁사과하세요	-5352
▁삭제하세요	-5353
▁상대방에게	-5354
▁상황이네요	-5355
▁섬유유연제	-5356
▁순간이네요	-5357
▁순간이었을	-5358
▁아름다워요	-5359
▁애매하네요	-5360
▁없을거예요	-5361
▁여자친구를	-5362
▁연락해볼까	-5363
▁연락했는데	-5364
▁연애하는데	-5365
▁외국인인데	-5366
▁이겨내세요	-5367
▁잃어버렸어	-5368
▁잊혀지기도	-5369
▁잘해주세요	-5370
▁좋아한다는	-5371
▁좋아했으면	-5372
▁좋을텐데요	-5373
▁큰일이네요	-5374
▁프라이버시	-5375
▁하고싶었던	-5376
▁힘든가봐요	-5377
이었나봅니다	-5378
▁남자친구에게	-5379
▁당황했겠어요	-5380
▁마음인가봐요	-5381
▁마주쳐보세요	-5382
▁미치겠습니다	-5383
▁어필해보세요	-5384
▁인정해주세요	-5385
▁있으신가봐요	-5386
▁전화해보세요	-5387
▁좋아해줬으면	-5388
▁필요하다면요	-5389
▁부담스러워하지	-5390
00	-5391
as	-5392
▁'	-5393
▁객	-5394
▁갠	-5395
▁겪	-5396
▁국	-5397
▁굳	-5398
▁굴	-5399
▁꼰	-5400
▁꽉	-5401
▁둔	-5402
▁뒹	-5403
▁뚫	-5404
▁라	-5405
▁렌	-5406
▁맴	-5407
▁맺	-5408
▁멘	-5409
▁몫	-5410
▁민	-5411
▁밉	-5412
▁뱃	-5413
▁벅	-5414
▁뻑	-5415
▁샌	-5416
▁씹	-5417
▁엇	-5418
▁엠	-5419
▁웹	-5420
▁윗	-5421
▁좌	-5422
▁쫄	-5423
▁찢	-5424
▁컸	-5425
▁콕	-5426
▁킁	-5427
▁탁	-5428
▁팍	-5429
▁품	-5430
▁핫	-5431
▁햇	-5432
▁험	-5433
▁훔	-5434
가가	-5435
가기	-5436
가능	-5437
가의	-5438
감당	-5439
강에	-5440
같애	-5441
걸음	-5442
게되	-5443
겠대	-5444
고있	-5445
공원	-5446
구경	-5447
구를	-5448
그만	-5449
극히	-5450
기에	-5451
기지	-5452
긴다	-5453
길만	-5454
꺼야	-5455
꼬박	-5456
났네	-5457
네여	-5458
달이	-5459
대는	-5460
독한	-5461
드네	-5462
드위	-5463
듬어	-5464
라네	-5465
라니	-5466
랬다	-5467
런지	-5468
렀어	-5469
력서	-5470
력에	-5471
로그	-5472
르기	-5473
르지	-5474
름이	-5475
리죠	-5476
리필	-5477
린라	-5478
림을	-5479
마요	-5480
마자	-5481
만해	-5482
맛도	-5483
맛이	-5484
맥이	-5485
명한	-5486
문을	-5487
물을	-5488
밖은	-5489
받는	-5490
받을	-5491
발을	-5492
버린	-5493
보네	-5494
부의	-5495
뻑해	-5496
생각	-5497
서와	-5498
설여	-5499
소리	-5500
속에	-5501
수업	-5502
스트	-5503
시피	-5504
신발	-5505
쎄요	-5506
아리	-5507
아빠	-5508
안녕	-5509
야해	-5510
양말	-5511
양제	-5512
없네	-5513
에만	-5514
역이	-5515
였네	-5516
영상	-5517
오래	-5518
온다	-5519
올라	-5520
올려	-5521
왔다	-5522
우고	-5523
우지	-5524
운데	-5525
울렛	-5526
은것	-5527
이너	-5528
인줄	-5529
정녀	-5530
져서	-5531
조건	-5532
주일	-5533
지못	-5534
지부	-5535
지우	-5536
질뻔	-5537
질제	-5538
쪄도	-5539
찰텐	-5540
처리	-5541
총회	-5542
촬영	-5543
콜록	-5544
터넷	-5545
테니	-5546
트남	-5547
트롤	-5548
티콘	-5549
프터	-5550
하며	-5551
하진	-5552
학금	-5553
한건	-5554
함에	-5555
해가	-5556
했나	-5557
향을	-5558
▁12	-5559
▁AS	-5560
▁as	-5561
▁가게	-5562
▁간대	-5563
▁간직	-5564
▁감동	-5565
▁감출	-5566
▁강요	-5567
▁강제	-5568
▁갖게	-5569
▁같다	-5570
▁같음	-5571
▁개시	-5572
▁객관	-5573
▁갠톡	-5574
▁걔는	-5575
▁걷고	-5576
▁걷길	-5577
▁골프	-5578
▁공유	-5579
▁과연	-5580
▁구두	-5581
▁구별	-5582
▁구워	-5583
▁군인	-5584
▁귀로	-5585
▁그걸	-5586
▁그때	-5587
▁그땐	-5588
▁글자	-5589
▁길면	-5590
▁길지	-5591
▁깎아	-5592
▁꼬박	-5593
▁꼰대	-5594
▁꾹꾹	-5595
▁끈을	-5596
▁끝냈	-5597
▁나나	-5598
▁나니	-5599
▁나야	-5600
▁남과	-5601
▁남들	-5602
▁낮잠	-5603
▁낳을	-5604
▁내면	-5605
▁내서	-5606
▁냉면	-5607
▁너가	-5608
▁너의	-5609
▁넣을	-5610
▁노려	-5611
▁놀까	-5612
▁농구	-5613
▁농담	-5614
▁놔둬	-5615
▁누락	-5616
▁눈높	-5617
▁늙어	-5618
▁다칠	-5619
▁단체	-5620
▁닮은	-5621
▁당첨	-5622
▁당한	-5623
▁대수	-5624
▁대충	-5625
▁대피	-5626
▁데가	-5627
▁독이	-5628
▁돌려	-5629
▁돌면	-5630
▁되짚	-5631
▁두푼	-5632
▁뒤에	-5633
▁뒹굴	-5634
▁드릴	-5635
▁땀을	-5636
▁때매	-5637
▁때요	-5638
▁때죠	-5639
▁떠날	-5640
▁또한	-5641
▁똥차	-5642
▁뜨겁	-5643
▁띄는	-5644
▁롱디	-5645
▁리드	-5646
▁마른	-5647
▁마중	-5648
▁막막	-5649
▁만화	-5650
▁말걸	-5651
▁망함	-5652
▁맞아	-5653
▁먹먹	-5654
▁먹은	-5655
▁멈춰	-5656
▁멋져	-5657
▁목적	-5658
▁몰려	-5659
▁못자	-5660
▁무모	-5661
▁무언	-5662
▁문화	-5663
▁물이	-5664
▁뭐로	-5665
▁뭐지	-5666
▁뭐해	-5667
▁뭘로	-5668
▁미루	-5669
▁미팅	-5670
▁믿고	-5671
▁믿어	-5672
▁믿지	-5673
▁밀려	-5674
▁바꿨	-5675
▁바쁠	-5676
▁반에	-5677
▁반장	-5678
▁반한	-5679
▁발견	-5680
▁밥을	-5681
▁방금	-5682
▁배달	-5683
▁배신	-5684
▁백업	-5685
▁버는	-5686
▁버릇	-5687
▁베프	-5688
▁변신	-5689
▁병신	-5690
▁보란	-5691
▁보신	-5692
▁봐주	-5693
▁봤네	-5694
▁부질	-5695
▁불만	-5696
▁불효	-5697
▁브랜	-5698
▁블록	-5699
▁비워	-5700
▁빌어	-5701
▁뿌린	-5702
▁사도	-5703
▁사먹	-5704
▁사수	-5705
▁사전	-5706
▁사줘	-5707
▁사춘	-5708
▁사표	-5709
▁상종	-5710
▁생생	-5711
▁서점	-5712
▁선풍	-5713
▁설득	-5714
▁세어	-5715
▁소름	-5716
▁속박	-5717
▁손편	-5718
▁수건	-5719
▁수능	-5720
▁승진	-5721
▁시려	-5722
▁시선	-5723
▁실천	-5724
▁실패	-5725
▁실행	-5726
▁싸운	-5727
▁싸웠	-5728
▁쌓여	-5729
▁썸도	-5730
▁쓰일	-5731
▁아부	-5732
▁안고	-5733
▁안될	-5734
▁안맞	-5735
▁안부	-5736
▁안할	-5737
▁알까	-5738
▁애의	-5739
▁애인	-5740
▁액정	-5741
▁어흥	-5742
▁없고	-5743
▁엇갈	-5744
▁엠티	-5745
▁여쭤	-5746
▁역할	-5747
▁열어	-5748
▁열흘	-5749
▁영어	-5750
▁예능	-5751
▁예비	-5752
▁예상	-5753
▁예약	-5754
▁오길	-5755
▁오려	-5756
▁오바	-5757
▁오셨	-5758
▁옳은	-5759
▁와인	-5760
▁와플	-5761
▁왠지	-5762
▁외출	-5763
▁욕해	-5764
▁운이	-5765
▁울고	-5766
▁웃는	-5767
▁웃음	-5768
▁원동	-5769
▁원인	-5770
▁원치	-5771
▁월세	-5772
▁웨딩	-5773
▁웹툰	-5774
▁으아	-5775
▁음료	-5776
▁이끌	-5777
▁이왕	-5778
▁인상	-5779
▁인지	-5780
▁일기	-5781
▁일방	-5782
▁일부	-5783
▁일시	-5784
▁읽어	-5785
▁임용	-5786
▁입학	-5787
▁있대	-5788
▁잊기	-5789
▁자장	-5790
▁작동	-5791
▁잘라	-5792
▁잠들	-5793
▁잡념	-5794
▁장갑	-5795
▁적당	-5796
▁전과	-5797
▁전학	-5798
▁절친	-5799
▁정장	-5800
▁정정	-5801
▁제정	-5802
▁조가	-5803
▁졸린	-5804
▁좋긴	-5805
▁좋음	-5806
▁좌절	-5807
▁죄가	-5808
▁주량	-5809
▁주워	-5810
▁즐겨	-5811
▁증거	-5812
▁증명	-5813
▁지각	-5814
▁지낸	-5815
▁지속	-5816
▁지압	-5817
▁지적	-5818
▁지친	-5819
▁직업	-5820
▁직전	-5821
▁질려	-5822
▁질린	-5823
▁질문	-5824
▁짧죠	-5825
▁찍는	-5826
▁찍어	-5827
▁찢어	-5828
▁차인	-5829
▁참다	-5830
▁처리	-5831
▁청결	-5832
▁청춘	-5833
▁최신	-5834
▁최저	-5835
▁축제	-5836
▁춥네	-5837
▁친절	-5838
▁친척	-5839
▁침묵	-5840
▁커서	-5841
▁케익	-5842
▁킁킁	-5843
▁키울	-5844
▁타나	-5845
▁타러	-5846
▁타인	-5847
▁탈모	-5848
▁태연	-5849
▁터지	-5850
▁터질	-5851
▁토닥	-5852
▁톡이	-5853
▁파도	-5854
▁팍팍	-5855
▁패션	-5856
▁포맷	-5857
▁폭식	-5858
▁피로	-5859
▁필기	-5860
▁필수	-5861
▁하러	-5862
▁하아	-5863
▁학벌	-5864
▁한약	-5865
▁한푼	-5866
▁할지	-5867
▁합리	-5868
▁해로	-5869
▁해준	-5870
▁했을	-5871
▁허락	-5872
▁현타	-5873
▁혼수	-5874
▁확률	-5875
▁환기	-5876
▁황당	-5877
▁회의	-5878
▁훔쳐	-5879
▁휴학	-5880
▁흐른	-5881
개월차	-5882
건강에	-5883
겠네여	-5884
기간을	-5885
다는걸	-5886
다는데	-5887
되어야	-5888
드리는	-5889
드위치	-5890
들이랑	-5891
뜨리기	-5892
렵니다	-5893
마다의	-5894
바퀴만	-5895
보려고	-5896
봤는데	-5897
센터에	-5898
셨나요	-5899
시키는	-5900
야해요	-5901
어가길	-5902
여행이	-5903
였나요	-5904
왔으면	-5905
이니까	-5906
이었어	-5907
졌어요	-5908
줬더니	-5909
지능에	-5910
칼로리	-5911
하기가	-5912
하기로	-5913
하는건	-5914
하려면	-5915
할까요	-5916
해봐도	-5917
해졌죠	-5918
해줘서	-5919
해지길	-5920
해지네	-5921
했다고	-5922
했다면	-5923
했던거	-5924
했을까	-5925
▁100	-5926
▁가기로	-5927
▁가끔씩	-5928
▁가네요	-5929
▁가는게	-5930
▁가려고	-5931
▁가볍게	-5932
▁가봐요	-5933
▁가야돼	-5934
▁가족들	-5935
▁각질제	-5936
▁간만에	-5937
▁간절히	-5938
▁갈수록	-5939
▁감각이	-5940
▁감정기	-5941
▁갑니다	-5942
▁거겠지	-5943
▁거라면	-5944
▁건강을	-5945
▁건들지	-5946
▁걸음을	-5947
▁것이죠	-5948
▁겠지만	-5949
▁결과가	-5950
▁결국엔	-5951
▁결혼을	-5952
▁계기가	-5953
▁고시원	-5954
▁고양이	-5955
▁곳까지	-5956
▁곳이죠	-5957
▁관계의	-5958
▁괜찮길	-5959
▁괜찮다	-5960
▁구멍이	-5961
▁귀여울	-5962
▁그것도	-5963
▁그녀도	-5964
▁그런가	-5965
▁그런지	-5966
▁그린라	-5967
▁그만둬	-5968
▁근처로	-5969
▁글쎄요	-5970
▁기르고	-5971
▁기술이	-5972
▁기억에	-5973
▁기억은	-5974
▁기억해	-5975
▁기울여	-5976
▁기준이	-5977
▁깨달음	-5978
▁꼼수를	-5979
▁꽃길만	-5980
▁끊겼어	-5981
▁나가면	-5982
▁나는데	-5983
▁나오네	-5984
▁나올거	-5985
▁나왔네	-5986
▁나이에	-5987
▁나이테	-5988
▁남겨서	-5989
▁남아있	-5990
▁남이니	-5991
▁남자의	-5992
▁낭만이	-5993
▁내일을	-5994
▁내일이	-5995
▁노래는	-5996
▁누구야	-5997
▁다녀도	-5998
▁다르게	-5999
▁다르지	-6000
▁다리가	-6001
▁단맛도	-6002
▁달라요	-6003
▁답답할	-6004
▁답정녀	-6005
▁대기업	-6006
▁대청소	-6007
▁대화의	-6008
▁더워서	-6009
▁도전은	-6010
▁돌리는	-6011
▁돌아서	-6012
▁동영상	-6013
▁되려고	-6014
▁되려면	-6015
▁되어요	-6016
▁되었길	-6017
▁되었네	-6018
▁되었을	-6019
▁된다고	-6020
▁두세요	-6021
▁뒷감당	-6022
▁드려요	-6023
▁들이대	-6024
▁따듯한	-6025
▁따라가	-6026
▁때로는	-6027
▁때부터	-6028
▁떠나간	-6029
▁떨린다	-6030
▁떨어뜨	-6031
▁똑같애	-6032
▁뛰어넘	-6033
▁레시피	-6034
▁마시지	-6035
▁막히는	-6036
▁막힌다	-6037
▁만남은	-6038
▁만났던	-6039
▁만났든	-6040
▁만들기	-6041
▁만지지	-6042
▁많으시	-6043
▁많은가	-6044
▁많은걸	-6045
▁말아야	-6046
▁말해서	-6047
▁말해주	-6048
▁맘처럼	-6049
▁맛있다	-6050
▁맛있어	-6051
▁망설여	-6052
▁맞으면	-6053
▁매력을	-6054
▁먹거나	-6055
▁먹는데	-6056
▁먹어도	-6057
▁먹어야	-6058
▁멈추지	-6059
▁메뉴얼	-6060
▁면도기	-6061
▁면역이	-6062
▁명상을	-6063
▁모습도	-6064
▁모자라	-6065
▁몸에는	-6066
▁무시해	-6067
▁무의식	-6068
▁무조건	-6069
▁문제죠	-6070
▁뭐하나	-6071
▁뭐하면	-6072
▁미래를	-6073
▁미련을	-6074
▁미용실	-6075
▁발전이	-6076
▁방법도	-6077
▁배울까	-6078
▁버리는	-6079
▁버스가	-6080
▁버티고	-6081
▁벅찰텐	-6082
▁베트남	-6083
▁베풀고	-6084
▁변해요	-6085
▁변화도	-6086
▁보기로	-6087
▁보내지	-6088
▁보냈네	-6089
▁보답을	-6090
▁보름달	-6091
▁보일러	-6092
▁부분을	-6093
▁부족해	-6094
▁불안해	-6095
▁불편한	-6096
▁붙잡는	-6097
▁붙잡아	-6098
▁비밀은	-6099
▁비밀을	-6100
▁비세요	-6101
▁비싸요	-6102
▁빠르면	-6103
▁빠지면	-6104
▁뻑뻑해	-6105
▁사과할	-6106
▁사귀어	-6107
▁사람인	-6108
▁사랑니	-6109
▁사이로	-6110
▁산책을	-6111
▁살쪄도	-6112
▁새신발	-6113
▁생각도	-6114
▁생겨서	-6115
▁선택이	-6116
▁설레는	-6117
▁설렘이	-6118
▁성공한	-6119
▁성별을	-6120
▁성적이	-6121
▁소리를	-6122
▁소문이	-6123
▁소소한	-6124
▁소액결	-6125
▁소화가	-6126
▁속시원	-6127
▁속이는	-6128
▁손가락	-6129
▁술마시	-6130
▁술한잔	-6131
▁쉽지가	-6132
▁스키장	-6133
▁시선을	-6134
▁시작할	-6135
▁식습관	-6136
▁싫어요	-6137
▁심심해	-6138
▁싶으면	-6139
▁싸우고	-6140
▁싸웠어	-6141
▁썸녀가	-6142
▁썸타고	-6143
▁쓰려고	-6144
▁쓰면서	-6145
▁쓰이는	-6146
▁아껴뒀	-6147
▁아는거	-6148
▁아니길	-6149
▁아니네	-6150
▁아니지	-6151
▁아쉬운	-6152
▁아울렛	-6153
▁아이디	-6154
▁아프게	-6155
▁아픔도	-6156
▁안받아	-6157
▁안부를	-6158
▁안좋아	-6159
▁안좋은	-6160
▁안타까	-6161
▁않았길	-6162
▁않지요	-6163
▁알겠어	-6164
▁알뜰폰	-6165
▁알바생	-6166
▁알아볼	-6167
▁앞에선	-6168
▁애매한	-6169
▁애틋한	-6170
▁애프터	-6171
▁야경이	-6172
▁어느새	-6173
▁어떡함	-6174
▁어렵다	-6175
▁어리석	-6176
▁어쩌면	-6177
▁어플로	-6178
▁어플을	-6179
▁언니랑	-6180
▁얼굴에	-6181
▁엄마랑	-6182
▁없는지	-6183
▁없지요	-6184
▁여러명	-6185
▁여자로	-6186
▁연락도	-6187
▁연애중	-6188
▁연인과	-6189
▁염색을	-6190
▁영양제	-6191
▁예감은	-6192
▁예민해	-6193
▁예뻐질	-6194
▁예의일	-6195
▁오니까	-6196
▁오디션	-6197
▁오라고	-6198
▁오해가	-6199
▁옷이요	-6200
▁외롭고	-6201
▁욕하고	-6202
▁용기내	-6203
▁우산에	-6204
▁우연이	-6205
▁우정이	-6206
▁운동할	-6207
▁월급날	-6208
▁월급은	-6209
▁위로를	-6210
▁위험한	-6211
▁위험해	-6212
▁유부녀	-6213
▁의심해	-6214
▁이기니	-6215
▁이러는	-6216
▁이력서	-6217
▁이별중	-6218
▁이별할	-6219
▁이사를	-6220
▁이어질	-6221
▁이어폰	-6222
▁이유로	-6223
▁이해를	-6224
▁이해못	-6225
▁인내할	-6226
▁인맥이	-6227
▁인생의	-6228
▁인터넷	-6229
▁일요일	-6230
▁일인지	-6231
▁입냄새	-6232
▁잇몸약	-6233
▁있거나	-6234
▁있겠다	-6235
▁있군요	-6236
▁있냐고	-6237
▁있었어	-6238
▁잊지못	-6239
▁잊혀져	-6240
▁자다가	-6241
▁자신은	-6242
▁자야지	-6243
▁자장면	-6244
▁잘생겼	-6245
▁잘지내	-6246
▁잘하면	-6247
▁잡아도	-6248
▁장학금	-6249
▁재밌을	-6250
▁저녁에	-6251
▁전여자	-6252
▁전하지	-6253
▁접는게	-6254
▁접어야	-6255
▁정리해	-6256
▁정신이	-6257
▁정해져	-6258
▁조심히	-6259
▁조절을	-6260
▁존중해	-6261
▁종교의	-6262
▁좋네요	-6263
▁좋대요	-6264
▁좋아서	-6265
▁좋았던	-6266
▁좋은거	-6267
▁좋을거	-6268
▁주저리	-6269
▁준다면	-6270
▁준비할	-6271
▁즐거울	-6272
▁즐겁게	-6273
▁즐기는	-6274
▁지극히	-6275
▁지금의	-6276
▁지루해	-6277
▁지웠어	-6278
▁지진시	-6279
▁지쳐서	-6280
▁지칠만	-6281
▁진실된	-6282
▁짝녀를	-6283
▁짠하고	-6284
▁찌질한	-6285
▁참았어	-6286
▁채워질	-6287
▁초기화	-6288
▁최고의	-6289
▁최악의	-6290
▁추천해	-6291
▁커플링	-6292
▁커피가	-6293
▁커피는	-6294
▁케이스	-6295
▁콩깍지	-6296
▁키우는	-6297
▁틀리는	-6298
▁파도가	-6299
▁편의점	-6300
▁포기가	-6301
▁풀어야	-6302
▁피하는	-6303
▁피해만	-6304
▁하나죠	-6305
▁하다니	-6306
▁하루는	-6307
▁하지도	-6308
▁한국도	-6309
▁한번더	-6310
▁한번쯤	-6311
▁한심해	-6312
▁할까요	-6313
▁함께도	-6314
▁해결될	-6315
▁해줄까	-6316
▁행동은	-6317
▁허리가	-6318
▁헤아릴	-6319
▁헷갈리	-6320
▁호랑이	-6321
▁호의를	-6322
▁혼자를	-6323
▁화장이	-6324
▁후회만	-6325
▁후회해	-6326
▁휴식도	-6327
▁흐르는	-6328
▁흘러가	-6329
▁희망은	-6330
▁희망이	-6331
▁힘들까	-6332
기만해도	-6333
드시거나	-6334
리겠어요	-6335
받으세요	-6336
보이네요	-6337
사람친구	-6338
성이에요	-6339
시나봐요	-6340
시는구나	-6341
실거예요	-6342
어두세요	-6343
있습니다	-6344
적이네요	-6345
지마세요	-6346
체적으로	-6347
하나봐요	-6348
하셨어요	-6349
해야할지	-6350
해졌어요	-6351
▁가능하죠	-6352
▁가능한가	-6353
▁가리세요	-6354
▁가족한테	-6355
▁간사하죠	-6356
▁감사하는	-6357
▁감으세요	-6358
▁갑작스럽	-6359
▁거짓말은	-6360
▁거짓말을	-6361
▁걱정이야	-6362
▁건강습관	-6363
▁건강하게	-6364
▁견뎌내고	-6365
▁결혼준비	-6366
▁결혼하고	-6367
▁결혼하기	-6368
▁결혼해야	-6369
▁고마움을	-6370
▁고민이죠	-6371
▁공부하면	-6372
▁과식하지	-6373
▁관심사에	-6374
▁괜찮겠지	-6375
▁괜찮을거	-6376
▁교양수업	-6377
▁그렇겠죠	-6378
▁금수저로	-6379
▁기다려도	-6380
▁기다리던	-6381
▁기본으로	-6382
▁기본이죠	-6383
▁깔끔해질	-6384
▁깨닫다니	-6385
▁꼬박꼬박	-6386
▁나겠네요	-6387
▁날이네요	-6388
▁남았네요	-6389
▁남이에요	-6390
▁남자분들	-6391
▁남자에게	-6392
▁남친이랑	-6393
▁낭만적인	-6394
▁너무나도	-6395
▁너무너무	-6396
▁넘어가네	-6397
▁넘었는데	-6398
▁놀이공원	-6399
▁높겠네요	-6400
▁놓으세요	-6401
▁눈높이가	-6402
▁늦었어요	-6403
▁다녀왔어	-6404
▁다릅니다	-6405
▁다하세요	-6406
▁단체생활	-6407
▁단호하게	-6408
▁달라져요	-6409
▁달라지지	-6410
▁당분간은	-6411
▁당신만이	-6412
▁데이트가	-6413
▁동생한테	-6414
▁드립니다	-6415
▁들리려고	-6416
▁들어가서	-6417
▁떨어지는	-6418
▁마셨는데	-6419
▁마음에서	-6420
▁마음이랑	-6421
▁만난다면	-6422
▁만화같은	-6423
▁맡기세요	-6424
▁먹었더니	-6425
▁멀어지면	-6426
▁멈추세요	-6427
▁메모하는	-6428
▁모두에게	-6429
▁모아야할	-6430
▁목표네요	-6431
▁무너져요	-6432
▁무섭나요	-6433
▁무한리필	-6434
▁문제네요	-6435
▁물어봐도	-6436
▁미안하다	-6437
▁바쁜일이	-6438
▁반가워요	-6439
▁받으세요	-6440
▁벗어나는	-6441
▁변화시켜	-6442
▁보내시길	-6443
▁보다보면	-6444
▁보일러가	-6445
▁보험처리	-6446
▁부모님을	-6447
▁분위기를	-6448
▁불공평해	-6449
▁비교하면	-6450
▁비밀연애	-6451
▁비정규직	-6452
▁비행기표	-6453
▁뿌린대로	-6454
▁사람이다	-6455
▁사람이야	-6456
▁사람하고	-6457
▁사랑이죠	-6458
▁사랑인지	-6459
▁사랑할까	-6460
▁사생활이	-6461
▁살아있음	-6462
▁상대방의	-6463
▁샌드위치	-6464
▁생각들을	-6465
▁생각하게	-6466
▁생겼어요	-6467
▁생긴다는	-6468
▁선물하면	-6469
▁선생님께	-6470
▁소유하는	-6471
▁쇼핑하고	-6472
▁수면양말	-6473
▁쉬어가도	-6474
▁스타일이	-6475
▁스테이크	-6476
▁슬퍼하고	-6477
▁습관처럼	-6478
▁시간내서	-6479
▁시기네요	-6480
▁신경쓰고	-6481
▁신경쓰면	-6482
▁신경쓰이	-6483
▁신고하고	-6484
▁심어볼까	-6485
▁심해지는	-6486
▁싶어하는	-6487
▁썸녀한테	-6488
▁쓸데없는	-6489
▁아름답죠	-6490
▁아쉬움이	-6491
▁아침부터	-6492
▁아팠으면	-6493
▁안타깝게	-6494
▁안해먹고	-6495
▁않겠네요	-6496
▁알아보는	-6497
▁어느정도	-6498
▁어둠에서	-6499
▁어떠세요	-6500
▁어떡하죠	-6501
▁어머어머	-6502
▁어찌해야	-6503
▁엄마아빠	-6504
▁없는걸까	-6505
▁없답니다	-6506
▁없어졌어	-6507
▁에너지가	-6508
▁에너지를	-6509
▁여자에게	-6510
▁여친에게	-6511
▁연락왔어	-6512
▁연락할까	-6513
▁연애세포	-6514
▁염탐하지	-6515
▁오래오래	-6516
▁올거예요	-6517
▁왜이렇게	-6518
▁외로움을	-6519
▁용서하고	-6520
▁웃으면서	-6521
▁원동력이	-6522
▁원인이죠	-6523
▁원한다면	-6524
▁유효기간	-6525
▁의식하는	-6526
▁이름이랑	-6527
▁이모티콘	-6528
▁이별하는	-6529
▁이불밖은	-6530
▁이상적인	-6531
▁이어보고	-6532
▁이어주는	-6533
▁이왕이면	-6534
▁이제서야	-6535
▁이해하고	-6536
▁이해하기	-6537
▁익숙해져	-6538
▁인생에서	-6539
▁인지시켜	-6540
▁인테리어	-6541
▁일어나면	-6542
▁일하면서	-6543
▁입으세요	-6544
▁있는걸까	-6545
▁있답니다	-6546
▁있으세요	-6547
▁잊어가는	-6548
▁잊혀질까	-6549
▁잘지내고	-6550
▁잠재력을	-6551
▁재미있어	-6552
▁재밌는거	-6553
▁저마다의	-6554
▁정신없이	-6555
▁존중하고	-6556
▁졸업식에	-6557
▁좋아지고	-6558
▁좋아지는	-6559
▁지금부터	-6560
▁지하철에	-6561
▁집에서도	-6562
▁짜증나네	-6563
▁차였는데	-6564
▁찾아가는	-6565
▁찾아봐요	-6566
▁찾아오는	-6567
▁챙겨주면	-6568
▁챙기세요	-6569
▁취미네요	-6570
▁취직하면	-6571
▁친구들을	-6572
▁친구라면	-6573
▁친구인데	-6574
▁친해지는	-6575
▁컴퓨터가	-6576
▁클럽에서	-6577
▁판단되면	-6578
▁표현하지	-6579
▁피부관리	-6580
▁필요하지	-6581
▁하느냐에	-6582
▁하니까요	-6583
▁하다보니	-6584
▁하셨군요	-6585
▁하지말고	-6586
▁한가지만	-6587
▁한답니다	-6588
▁한바퀴만	-6589
▁함께하고	-6590
▁합리적인	-6591
▁해결되길	-6592
▁해보려고	-6593
▁해봤는데	-6594
▁해야겠지	-6595
▁핸드폰이	-6596
▁헤어짐은	-6597
▁헬스장에	-6598
▁헷갈리네	-6599
▁형편대로	-6600
▁혼자해도	-6601
▁확인하는	-6602
▁후련하네	-6603
▁후련하니	-6604
▁후회하는	-6605
▁후회할까	-6606
▁힘들겠죠	-6607
▁힘들지만	-6608
원해보세요	-6609
조심하세요	-6610
하셨겠어요	-6611
한가봅니다	-6612
▁가능하다고	-6613
▁가족들이랑	-6614
▁간직하세요	-6615
▁갑작스러운	-6616
▁결혼적령기	-6617
▁고민하느라	-6618
▁고백하는게	-6619
▁고백하세요	-6620
▁공부하세요	-6621
▁공부해야지	-6622
▁괜찮아지고	-6623
▁그린라이트	-6624
▁기다리세요	-6625
▁기다릴게요	-6626
▁끝났습니다	-6627
▁나갈거예요	-6628
▁나눠보는게	-6629
▁나쁜거예요	-6630
▁남자입니다	-6631
▁놀랐겠어요	-6632
▁놀랐나봐요	-6633
▁놀러가세요	-6634
▁다가가세요	-6635
▁다행이네요	-6636
▁대단하네요	-6637
▁대피방법을	-6638
▁덜어보세요	-6639
▁데려가세요	-6640
▁도와달라고	-6641
▁동감입니다	-6642
▁두근거림을	-6643
▁드려보세요	-6644
▁들려주세요	-6645
▁들었겠네요	-6646
▁따뜻해졌죠	-6647
▁로봇이에요	-6648
▁만남이네요	-6649
▁만들었어요	-6650
▁망가뜨리기	-6651
▁밀어보세요	-6652
▁바람이라도	-6653
▁받아들여야	-6654
▁벅찰텐대요	-6655
▁병원가세요	-6656
▁보냈습니다	-6657
▁불편하겠죠	-6658
▁비하하지는	-6659
▁사랑스러운	-6660
▁사랑이라는	-6661
▁사랑이에요	-6662
▁사랑하니까	-6663
▁삭제하는게	-6664
▁상관없지만	-6665
▁생각이네요	-6666
▁생각한대로	-6667
▁생각할게요	-6668
▁생각할수록	-6669
▁생겼을지도	-6670
▁선물이네요	-6671
▁선택이었을	-6672
▁성공적으로	-6673
▁세워보세요	-6674
▁소개팅으로	-6675
▁소개팅하고	-6676
▁소중합니다	-6677
▁스타트업에	-6678
▁스트레스를	-6679
▁스트레스야	-6680
▁스트레스의	-6681
▁시간이네요	-6682
▁시켜달라고	-6683
▁아직이라면	-6684
▁알아두세요	-6685
▁알아차려도	-6686
▁알아차리지	-6687
▁애정표현일	-6688
▁없애주세요	-6689
▁없으니까요	-6690
▁여쭤보세요	-6691
▁여행이네요	-6692
▁연락이라도	-6693
▁연락하는게	-6694
▁연락하라고	-6695
▁연락해보는	-6696
▁연락해봐요	-6697
▁오늘이에요	-6698
▁운동하세요	-6699
▁움직이세요	-6700
▁위해서예요	-6701
▁응원할게요	-6702
▁이야기하고	-6703
▁이야기하는	-6704
▁이어나가는	-6705
▁인공지능에	-6706
▁일어나세요	-6707
▁있었을지도	-6708
▁자체만으로	-6709
▁잘못입니다	-6710
▁잡아보세요	-6711
▁재밌겠어요	-6712
▁점심시간에	-6713
▁정리하세요	-6714
▁정신건강에	-6715
▁정정기간을	-6716
▁제자리걸음	-6717
▁조급해지면	-6718
▁졸업하는데	-6719
▁좋으시네요	-6720
▁주의하세요	-6721
▁준비하기는	-6722
▁준비하느라	-6723
▁지저분해요	-6724
▁직접적으로	-6725
▁질러보세요	-6726
▁청소하세요	-6727
▁치료하세요	-6728
▁친구들한테	-6729
▁친해지는게	-6730
▁칭찬이네요	-6731
▁칭찬해주고	-6732
▁포장하는게	-6733
▁표현해보는	-6734
▁하루하루가	-6735
▁하우스웨딩	-6736
▁해드릴게요	-6737
▁해야겠네여	-6738
▁행복하세요	-6739
▁행복해보여	-6740
▁호랑이보다	-6741
▁확실해지면	-6742
▁흘려보세요	-6743
▁힘드니까요	-6744
▁간절하겠네요	-6745
▁개시해보세요	-6746
▁걱정되겠어요	-6747
▁결정했나봐요	-6748
▁극복해보세요	-6749
▁낳을뿐이에요	-6750
▁넓으신가봐요	-6751
▁놔둬야하는데	-6752
▁대단하시군요	-6753
▁되짚어보세요	-6754
▁많았나봅니다	-6755
▁부딪혔나봐요	-6756
▁부탁드립니다	-6757
▁분담해보세요	-6758
▁사랑하는지는	-6759
▁삭제해보세요	-6760
▁아껴뒀나봐요	-6761
▁연락두절돼서	-6762
▁운동해보세요	-6763
▁위로해드리는	-6764
▁이해해보세요	-6765
▁재미있나봐요	-6766
▁절약되겠네요	-6767
▁정신차리세요	-6768
▁존중해주세요	-6769
▁챙겨드시거나	-6770
▁축하해주세요	-6771
▁포맷해보세요	-6772
▁피곤했나봐요	-6773
▁필요해보여요	-6774
▁확인해달라고	-6775
▁힘드시겠어요	-6776
▁걱정하지마세요	-6777
▁결정이었을거라	-6778
▁말씀드려보세요	-6779
▁부담스러워할까	-6780
▁적응해야겠네요	-6781
▁좋아하시는구나	-6782
▁프로포즈해보세요	-6783
..	-6784
▁0	-6785
▁갱	-6786
▁겉	-6787
▁곤	-6788
▁깍	-6789
▁깰	-6790
▁껴	-6791
▁꽝	-6792
▁꿔	-6793
▁꿰	-6794
▁낸	-6795
▁넋	-6796
▁뇌	-6797
▁눌	-6798
▁눕	-6799
▁덥	-6800
▁돋	-6801
▁돕	-6802
▁뒀	-6803
▁떴	-6804
▁떼	-6805
▁뜬	-6806
▁묘	-6807
▁박	-6808
▁벤	-6809
▁볶	-6810
▁빛	-6811
▁뻐	-6812
▁뽀	-6813
▁숫	-6814
▁쌍	-6815
▁앱	-6816
▁얽	-6817
▁엊	-6818
▁엿	-6819
▁욜	-6820
▁워	-6821
▁젤	-6822
▁쥐	-6823
▁짰	-6824
▁쪄	-6825
▁쭉	-6826
▁춘	-6827
▁캬	-6828
▁턱	-6829
▁텀	-6830
▁텅	-6831
▁퇴	-6832
▁틈	-6833
▁팁	-6834
▁팩	-6835
▁펴	-6836
▁헐	-6837
▁헥	-6838
▁헹	-6839
▁홈	-6840
▁홧	-6841
▁흠	-6842
▁히	-6843
가서	-6844
가에	-6845
가한	-6846
간대	-6847
간질	-6848
갔다	-6849
거든	-6850
걸이	-6851
겁한	-6852
게해	-6853
경이	-6854
계절	-6855
고의	-6856
과류	-6857
구로	-6858
그램	-6859
그런	-6860
극이	-6861
근한	-6862
근해	-6863
긋지	-6864
긋한	-6865
기사	-6866
기한	-6867
길래	-6868
꺼풀	-6869
꼈어	-6870
꾸던	-6871
꾸로	-6872
났을	-6873
낭비	-6874
내길	-6875
너덜	-6876
년만	-6877
년반	-6878
년사	-6879
년전	-6880
놓지	-6881
는다	-6882
니깐	-6883
님들	-6884
다운	-6885
닥을	-6886
달래	-6887
답이	-6888
더군	-6889
도라	-6890
독여	-6891
동거	-6892
동물	-6893
동차	-6894
됐네	-6895
된다	-6896
됬네	-6897
두리	-6898
들의	-6899
▁잼	-6900
따로	-6901
때문	-6902
땜에	-6903
떨떨	-6904
란다	-6905
량의	-6906
려는	-6907
렸다	-6908
로라	-6909
로션	-6910
로잡	-6911
르몬	-6912
른다	-6913
릴있	-6914
마디	-6915
만남	-6916
망이	-6917
먹을	-6918
문득	-6919
물주	-6920
미고	-6921
바구	-6922
받은	-6923
발이	-6924
방비	-6925
버림	-6926
번을	-6927
번의	-6928
베리	-6929
보낼	-6930
보려	-6931
볶이	-6932
봐야	-6933
부르	-6934
부한	-6935
불러	-6936
뿐이	-6937
사이	-6938
사자	-6939
사진	-6940
상일	-6941
샜어	-6942
서요	-6943
서히	-6944
선배	-6945
설계	-6946
섭섭	-6947
성에	-6948
성을	-6949
셨어	-6950
소짓	-6951
수건	-6952
스레	-6953
시도	-6954
시방	-6955
시에	-6956
시지	-6957
신가	-6958
신고	-6959
신청	-6960
실에	-6961
실을	-6962
싶네	-6963
싸움	-6964
썸남	-6965
아파	-6966
안나	-6967
안할	-6968
액션	-6969
약이	-6970
었나	-6971
었는	-6972
었지	-6973
여도	-6974
여서	-6975
여주	-6976
연이	-6977
오게	-6978
오지	-6979
올까	-6980
와도	-6981
욕탕	-6982
용품	-6983
워시	-6984
워야	-6985
웠던	-6986
은지	-6987
의별	-6988
의의	-6989
이상	-6990
이진	-6991
이집	-6992
인공	-6993
일도	-6994
일은	-6995
임금	-6996
임말	-6997
자가	-6998
잔치	-6999
쟁이	-7000
저히	-7001
적일	-7002
점이	-7003
좋아	-7004
주에	-7005
주의	-7006
주인	-7007
준대	-7008
줘도	-7009
줘서	-7010
즈를	-7011
지질	-7012
직이	-7013
질때	-7014
짼데	-7015
차게	-7016
찰랑	-7017
채기	-7018
천번	-7019
체가	-7020
쳐서	-7021
쳤다	-7022
초가	-7023
초에	-7024
치료	-7025
커플	-7026
코인	-7027
키기	-7028
타는	-7029
탈까	-7030
탈이	-7031
탔어	-7032
통이	-7033
통제	-7034
트로	-7035
트를	-7036
편이	-7037
평가	-7038
폭발	-7039
피해	-7040
학원	-7041
한대	-7042
한듯	-7043
할래	-7044
할수	-7045
헤어	-7046
혔어	-7047
활용	-7048
효도	-7049
휴일	-7050
히나	-7051
...	-7052
▁11	-7053
▁ᅮᅮ	-7054
▁가본	-7055
▁가시	-7056
▁가입	-7057
▁가자	-7058
▁간섭	-7059
▁간질	-7060
▁갈궈	-7061
▁갈등	-7062
▁갔나	-7063
▁거도	-7064
▁거둬	-7065
▁거에	-7066
▁거였	-7067
▁건데	-7068
▁걸요	-7069
▁겁나	-7070
▁것에	-7071
▁것일	-7072
▁겠지	-7073
▁격식	-7074
▁견적	-7075
▁계산	-7076
▁계약	-7077
▁고집	-7078
▁곤두	-7079
▁골랐	-7080
▁공간	-7081
▁공복	-7082
▁공황	-7083
▁관찰	-7084
▁구매	-7085
▁구박	-7086
▁굳이	-7087
▁그나	-7088
▁그도	-7089
▁그림	-7090
▁그의	-7091
▁그지	-7092
▁그쪽	-7093
▁근교	-7094
▁근데	-7095
▁기네	-7096
▁기름	-7097
▁기쁨	-7098
▁기침	-7099
▁길을	-7100
▁김에	-7101
▁까아	-7102
▁깨진	-7103
▁깨짐	-7104
▁꾸죠	-7105
▁끊기	-7106
▁끊는	-7107
▁끊어	-7108
▁끌지	-7109
▁끝의	-7110
▁나게	-7111
▁나란	-7112
▁나빴	-7113
▁난감	-7114
▁날짜	-7115
▁남녀	-7116
▁낮술	-7117
▁내딛	-7118
▁내맘	-7119
▁너덜	-7120
▁너랑	-7121
▁너와	-7122
▁넘게	-7123
▁넘넘	-7124
▁넘은	-7125
▁노잼	-7126
▁놀자	-7127
▁놓는	-7128
▁놓지	-7129
▁누워	-7130
▁느꼈	-7131
▁늘어	-7132
▁다듬	-7133
▁답을	-7134
▁대상	-7135
▁대쉬	-7136
▁덥다	-7137
▁데도	-7138
▁데서	-7139
▁돕는	-7140
▁돼서	-7141
▁돼지	-7142
▁되게	-7143
▁될지	-7144
▁두렵	-7145
▁둘다	-7146
▁드려	-7147
▁듣는	-7148
▁들게	-7149
▁듯한	-7150
▁따끔	-7151
▁따져	-7152
▁딱히	-7153
▁딴짓	-7154
▁때인	-7155
▁떨고	-7156
▁뜨끈	-7157
▁뜨는	-7158
▁라는	-7159
▁마라	-7160
▁만한	-7161
▁말과	-7162
▁말만	-7163
▁말자	-7164
▁망상	-7165
▁망한	-7166
▁맞게	-7167
▁맞을	-7168
▁맞이	-7169
▁맞출	-7170
▁매몰	-7171
▁매운	-7172
▁매정	-7173
▁먹기	-7174
▁먹나	-7175
▁멈출	-7176
▁멋질	-7177
▁메리	-7178
▁모여	-7179
▁몸과	-7180
▁몸살	-7181
▁못난	-7182
▁못생	-7183
▁무지	-7184
▁미운	-7185
▁믿는	-7186
▁믿음	-7187
▁밑바	-7188
▁바란	-7189
▁바래	-7190
▁반년	-7191
▁반영	-7192
▁받네	-7193
▁받았	-7194
▁받음	-7195
▁발라	-7196
▁발이	-7197
▁밤만	-7198
▁밤새	-7199
▁밥은	-7200
▁배가	-7201
▁배정	-7202
▁백수	-7203
▁뱃살	-7204
▁버림	-7205
▁번만	-7206
▁벌레	-7207
▁벌면	-7208
▁법을	-7209
▁벗겨	-7210
▁벗어	-7211
▁벤츠	-7212
▁병행	-7213
▁보수	-7214
▁보약	-7215
▁보임	-7216
▁보자	-7217
▁부케	-7218
▁부팅	-7219
▁분양	-7220
▁불순	-7221
▁불쑥	-7222
▁블랙	-7223
▁비만	-7224
▁비쌈	-7225
▁비오	-7226
▁비와	-7227
▁비용	-7228
▁비친	-7229
▁비트	-7230
▁비해	-7231
▁비혼	-7232
▁빼앗	-7233
▁사무	-7234
▁살려	-7235
▁살죠	-7236
▁삶에	-7237
▁삶은	-7238
▁샀다	-7239
▁서울	-7240
▁서핑	-7241
▁선배	-7242
▁설계	-7243
▁설렐	-7244
▁설마	-7245
▁세달	-7246
▁세탁	-7247
▁속아	-7248
▁속지	-7249
▁수십	-7250
▁수제	-7251
▁숙제	-7252
▁숙취	-7253
▁숫자	-7254
▁쉬다	-7255
▁스노	-7256
▁스쳐	-7257
▁스케	-7258
▁슬플	-7259
▁시급	-7260
▁식사	-7261
▁식욕	-7262
▁식은	-7263
▁식혀	-7264
▁실용	-7265
▁심난	-7266
▁심남	-7267
▁심쿵	-7268
▁싸울	-7269
▁쌓인	-7270
▁쏟아	-7271
▁쓰게	-7272
▁쓰면	-7273
▁쓰이	-7274
▁씨씨	-7275
▁아끼	-7276
▁아날	-7277
▁아냐	-7278
▁아놔	-7279
▁아래	-7280
▁아려	-7281
▁안풀	-7282
▁안한	-7283
▁않기	-7284
▁않으	-7285
▁알긴	-7286
▁애완	-7287
▁야구	-7288
▁야식	-7289
▁약점	-7290
▁양을	-7291
▁양치	-7292
▁얘는	-7293
▁어딘	-7294
▁어언	-7295
▁어째	-7296
▁억울	-7297
▁없앨	-7298
▁엉엉	-7299
▁에이	-7300
▁엮여	-7301
▁연상	-7302
▁연하	-7303
▁열받	-7304
▁영통	-7305
▁예고	-7306
▁예쁠	-7307
▁예정	-7308
▁예측	-7309
▁오죠	-7310
▁옥상	-7311
▁올게	-7312
▁옷은	-7313
▁와요	-7314
▁왜케	-7315
▁요청	-7316
▁욕을	-7317
▁욜로	-7318
▁용량	-7319
▁우습	-7320
▁웃게	-7321
▁웃고	-7322
▁원해	-7323
▁위축	-7324
▁유료	-7325
▁유통	-7326
▁으으	-7327
▁의존	-7328
▁이래	-7329
▁일과	-7330
▁일인	-7331
▁있던	-7332
▁잊자	-7333
▁자다	-7334
▁자요	-7335
▁자제	-7336
▁잘됐	-7337
▁잘한	-7338
▁잠식	-7339
▁장점	-7340
▁저기	-7341
▁저만	-7342
▁저음	-7343
▁저장	-7344
▁저주	-7345
▁저편	-7346
▁적은	-7347
▁적을	-7348
▁전할	-7349
▁절망	-7350
▁접은	-7351
▁접촉	-7352
▁정열	-7353
▁정이	-7354
▁젖은	-7355
▁제습	-7356
▁조별	-7357
▁졸라	-7358
▁종종	-7359
▁종지	-7360
▁좋네	-7361
▁주길	-7362
▁줄도	-7363
▁줄일	-7364
▁중문	-7365
▁줘야	-7366
▁즐길	-7367
▁지날	-7368
▁지수	-7369
▁지지	-7370
▁직후	-7371
▁질긴	-7372
▁쪼금	-7373
▁찔려	-7374
▁찬물	-7375
▁찼어	-7376
▁찾은	-7377
▁천국	-7378
▁초라	-7379
▁총회	-7380
▁추가	-7381
▁춥고	-7382
▁충실	-7383
▁취소	-7384
▁치마	-7385
▁친군	-7386
▁카공	-7387
▁크기	-7388
▁타면	-7389
▁탄다	-7390
▁태그	-7391
▁톡을	-7392
▁통장	-7393
▁투잡	-7394
▁페메	-7395
▁편린	-7396
▁편해	-7397
▁평범	-7398
▁표출	-7399
▁풀고	-7400
▁풀리	-7401
▁하객	-7402
▁하니	-7403
▁하필	-7404
▁학기	-7405
▁한결	-7406
▁한눈	-7407
▁한데	-7408
▁할게	-7409
▁할말	-7410
▁할인	-7411
▁핫한	-7412
▁해가	-7413
▁했네	-7414
▁허기	-7415
▁허허	-7416
▁헌신	-7417
▁헛된	-7418
▁헥헥	-7419
▁현관	-7420
▁혼나	-7421
▁혼내	-7422
▁혼밥	-7423
▁혼인	-7424
▁화나	-7425
▁화난	-7426
▁화학	-7427
▁화해	-7428
▁효도	-7429
▁훈훈	-7430
▁휘둘	-7431
▁흐려	-7432
▁히스	-7433
▁힘겨	-7434
▁힘은	-7435
가기도	-7436
가보다	-7437
갔네요	-7438
같네요	-7439
겁니다	-7440
게되네	-7441
기간이	-7442
기한이	-7443
나가는	-7444
난다고	-7445
난다면	-7446
날인데	-7447
년간의	-7448
년동안	-7449
년하고	-7450
는다고	-7451
는다는	-7452
는데는	-7453
는지도	-7454
다는것	-7455
다는게	-7456
다니는	-7457
달라는	-7458
당하는	-7459
당했어	-7460
도라의	-7461
독하고	-7462
드리러	-7463
때문에	-7464
라고는	-7465
렸으면	-7466
만나고	-7467
망이지	-7468
방법이	-7469
버리네	-7470
보려구	-7471
보셔요	-7472
보이나	-7473
빛으로	-7474
사람은	-7475
사진을	-7476
생각이	-7477
소짓게	-7478
속에서	-7479
스러웠	-7480
스럽네	-7481
스타일	-7482
시나요	-7483
싶네요	-7484
았다고	-7485
았더니	-7486
았어요	-7487
야겠어	-7488
야겠지	-7489
어진다	-7490
없어요	-7491
었다면	-7492
었을까	-7493
었지만	-7494
였는지	-7495
였을까	-7496
오는날	-7497
옵니다	-7498
왔네요	-7499
으라고	-7500
을때는	-7501
이나마	-7502
이면서	-7503
이야기	-7504
이지요	-7505
인거죠	-7506
인트가	-7507
있어요	-7508
있을까	-7509
자마자	-7510
적이면	-7511
지나봐	-7512
지부지	-7513
질까봐	-7514
플라워	-7515
하겠어	-7516
하다니	-7517
한거니	-7518
한다고	-7519
해보는	-7520
해져도	-7521
해지고	-7522
했나요	-7523
했다는	-7524
▁가거나	-7525
▁가라앉	-7526
▁가량의	-7527
▁가리는	-7528
▁가스비	-7529
▁가슴은	-7530
▁가치가	-7531
▁간절한	-7532
▁감정도	-7533
▁갔는지	-7534
▁갖자는	-7535
▁같다면	-7536
▁같으면	-7537
▁개인의	-7538
▁거꾸로	-7539
▁거라도	-7540
▁거리가	-7541
▁걱정을	-7542
▁건강한	-7543
▁걸렸어	-7544
▁걸었어	-7545
▁것이든	-7546
▁것일까	-7547
▁견과류	-7548
▁견디기	-7549
▁결국은	-7550
▁결혼에	-7551
▁결혼하	-7552
▁경쟁이	-7553
▁고독한	-7554
▁고르는	-7555
▁고민을	-7556
▁고백이	-7557
▁고백한	-7558
▁고치기	-7559
▁공감이	-7560
▁공부를	-7561
▁공휴일	-7562
▁관계는	-7563
▁관계도	-7564
▁관계에	-7565
▁관심있	-7566
▁괜찮지	-7567
▁괴롭다	-7568
▁구남친	-7569
▁구썸남	-7570
▁귀여운	-7571
▁귀엽죠	-7572
▁귀찮다	-7573
▁귀찮은	-7574
▁그것이	-7575
▁그대의	-7576
▁그러지	-7577
▁그런거	-7578
▁그만두	-7579
▁그분도	-7580
▁그분에	-7581
▁그에게	-7582
▁기대는	-7583
▁기억될	-7584
▁기억만	-7585
▁기운이	-7586
▁길거리	-7587
▁깨끗이	-7588
▁깨졌어	-7589
▁꿈에나	-7590
▁끊는게	-7591
▁끊어야	-7592
▁끝나도	-7593
▁끝나면	-7594
▁끝내는	-7595
▁끝인거	-7596
▁끝일줄	-7597
▁나가는	-7598
▁나가지	-7599
▁나갈까	-7600
▁나니까	-7601
▁나들이	-7602
▁나쁜놈	-7603
▁나약한	-7604
▁나오고	-7605
▁나온다	-7606
▁나이들	-7607
▁나타나	-7608
▁날씨도	-7609
▁남기고	-7610
▁남기는	-7611
▁남는게	-7612
▁났나봐	-7613
▁내리지	-7614
▁내버려	-7615
▁넋두리	-7616
▁노래가	-7617
▁노후는	-7618
▁놓아줄	-7619
▁놓치고	-7620
▁놓치지	-7621
▁누구냐	-7622
▁누우면	-7623
▁눈꺼풀	-7624
▁느껴지	-7625
▁다갔어	-7626
▁다니는	-7627
▁다닐까	-7628
▁다독여	-7629
▁다른데	-7630
▁다시는	-7631
▁다양한	-7632
▁다정한	-7633
▁단순한	-7634
▁단톡방	-7635
▁달달할	-7636
▁달라질	-7637
▁담배를	-7638
▁답장을	-7639
▁당당히	-7640
▁당사자	-7641
▁당신만	-7642
▁대단한	-7643
▁대하는	-7644
▁대학원	-7645
▁더이상	-7646
▁데리러	-7647
▁도와드	-7648
▁도저히	-7649
▁도전이	-7650
▁독하게	-7651
▁돌아갈	-7652
▁돌아와	-7653
▁동생이	-7654
▁되겠죠	-7655
▁되네요	-7656
▁되시길	-7657
▁된다면	-7658
▁두려운	-7659
▁뒤돌아	-7660
▁뒷통수	-7661
▁드레스	-7662
▁든든할	-7663
▁들어맞	-7664
▁들어요	-7665
▁들으며	-7666
▁들텐데	-7667
▁딱이죠	-7668
▁때리기	-7669
▁때마다	-7670
▁땡긴다	-7671
▁떡볶이	-7672
▁떨려서	-7673
▁떨어짐	-7674
▁똑같이	-7675
▁똑똑해	-7676
▁리액션	-7677
▁마셔요	-7678
▁마시기	-7679
▁마음껏	-7680
▁마주쳤	-7681
▁만나실	-7682
▁만났을	-7683
▁만들면	-7684
▁만들죠	-7685
▁많겠지	-7686
▁많지만	-7687
▁말이죠	-7688
▁말투는	-7689
▁말하면	-7690
▁말할까	-7691
▁맘같지	-7692
▁맛난거	-7693
▁머리로	-7694
▁먹기로	-7695
▁먹으러	-7696
▁멘탈이	-7697
▁면접만	-7698
▁모두를	-7699
▁모으는	-7700
▁모처럼	-7701
▁목걸이	-7702
▁목욕탕	-7703
▁몰라서	-7704
▁몰랐어	-7705
▁몸에서	-7706
▁못할까	-7707
▁무거운	-7708
▁무너진	-7709
▁무뎌질	-7710
▁무릎에	-7711
▁무모한	-7712
▁무섭네	-7713
▁무섭다	-7714
▁문제에	-7715
▁묻어두	-7716
▁물가가	-7717
▁물질이	-7718
▁뭐하냐	-7719
▁뭘까요	-7720
▁뭘하면	-7721
▁미련만	-7722
▁미련한	-7723
▁믿기지	-7724
▁바꾸는	-7725
▁바꿔야	-7726
▁바꿨어	-7727
▁바뀌어	-7728
▁바나나	-7729
▁바람둥	-7730
▁바람피	-7731
▁반대로	-7732
▁반에서	-7733
▁받았던	-7734
▁방법은	-7735
▁방식이	-7736
▁방학에	-7737
▁방학은	-7738
▁방해가	-7739
▁배불러	-7740
▁배워도	-7741
▁배터리	-7742
▁베란다	-7743
▁변덕이	-7744
▁변하고	-7745
▁별로임	-7746
▁별의별	-7747
▁보고만	-7748
▁보고파	-7749
▁보는건	-7750
▁보는데	-7751
▁보니까	-7752
▁보듬어	-7753
▁보시면	-7754
▁보이네	-7755
▁보인다	-7756
▁복잡할	-7757
▁본인이	-7758
▁볼때는	-7759
▁봐봐요	-7760
▁부리면	-7761
▁분명히	-7762
▁분에게	-7763
▁불가능	-7764
▁비겁한	-7765
▁비정상	-7766
▁빈자리	-7767
▁빌릴까	-7768
▁빠르게	-7769
▁빠져나	-7770
▁사겼어	-7771
▁사계절	-7772
▁사귀긴	-7773
▁사귀다	-7774
▁사라진	-7775
▁사람일	-7776
▁사랑만	-7777
▁사로잡	-7778
▁사실에	-7779
▁살거야	-7780
▁살아서	-7781
▁살아온	-7782
▁샀는데	-7783
▁상대는	-7784
▁상대에	-7785
▁상사병	-7786
▁상자를	-7787
▁상태인	-7788
▁상황에	-7789
▁상황일	-7790
▁색다른	-7791
▁생각지	-7792
▁생기길	-7793
▁서서히	-7794
▁선물해	-7795
▁선의의	-7796
▁선택의	-7797
▁설레고	-7798
▁성격도	-7799
▁성장을	-7800
▁세월이	-7801
▁소름돋	-7802
▁소모가	-7803
▁소비를	-7804
▁손수건	-7805
▁손으로	-7806
▁쇼핑몰	-7807
▁수천번	-7808
▁쉬면서	-7809
▁스릴있	-7810
▁슬프다	-7811
▁시간과	-7812
▁시작은	-7813
▁시작을	-7814
▁식었어	-7815
▁싫은데	-7816
▁싶다면	-7817
▁싶은게	-7818
▁싶지만	-7819
▁썸녀랑	-7820
▁썸으로	-7821
▁썸일까	-7822
▁씁니다	-7823
▁아니니	-7824
▁아니다	-7825
▁아무는	-7826
▁아무런	-7827
▁아이고	-7828
▁아파요	-7829
▁아프기	-7830
▁안되나	-7831
▁안보여	-7832
▁안오지	-7833
▁안하면	-7834
▁안해줘	-7835
▁않았을	-7836
▁알게되	-7837
▁알려면	-7838
▁알아가	-7839
▁알아야	-7840
▁애교가	-7841
▁약간의	-7842
▁얘기해	-7843
▁어디가	-7844
▁어렵지	-7845
▁어색한	-7846
▁어색해	-7847
▁어이가	-7848
▁얼떨떨	-7849
▁없다는	-7850
▁없대요	-7851
▁여기서	-7852
▁여지를	-7853
▁여행지	-7854
▁역시나	-7855
▁연습해	-7856
▁연애도	-7857
▁연애인	-7858
▁연인이	-7859
▁열까지	-7860
▁영원히	-7861
▁영향을	-7862
▁영화가	-7863
▁영화를	-7864
▁예쁘다	-7865
▁예쁜데	-7866
▁예의를	-7867
▁오늘로	-7868
▁오래갈	-7869
▁오르네	-7870
▁오지랖	-7871
▁온다고	-7872
▁올랐어	-7873
▁와닿지	-7874
▁왜이리	-7875
▁외국어	-7876
▁외로움	-7877
▁우산을	-7878
▁우울증	-7879
▁우울한	-7880
▁운동은	-7881
▁운동화	-7882
▁울적한	-7883
▁울적해	-7884
▁웃는게	-7885
▁웃으면	-7886
▁원망은	-7887
▁원하지	-7888
▁월급을	-7889
▁유학을	-7890
▁의도는	-7891
▁의심이	-7892
▁이김에	-7893
▁이대로	-7894
▁이러다	-7895
▁이러면	-7896
▁이럴까	-7897
▁이번달	-7898
▁이번엔	-7899
▁이별하	-7900
▁이사람	-7901
▁이상의	-7902
▁이어가	-7903
▁이해는	-7904
▁이혼을	-7905
▁인고의	-7906
▁인연에	-7907
▁일부로	-7908
▁입니다	-7909
▁입을까	-7910
▁입장을	-7911
▁있도록	-7912
▁있었던	-7913
▁있음을	-7914
▁잊기가	-7915
▁잊는게	-7916
▁잊혀진	-7917
▁자극이	-7918
▁자동차	-7919
▁자리가	-7920
▁자유를	-7921
▁자존심	-7922
▁자체를	-7923
▁작아지	-7924
▁잔소리	-7925
▁잘되고	-7926
▁잘못은	-7927
▁잘생겨	-7928
▁잘자요	-7929
▁잘하게	-7930
▁잘하니	-7931
▁잘할까	-7932
▁잡념을	-7933
▁잡았어	-7934
▁장점을	-7935
▁재미없	-7936
▁재설계	-7937
▁재채기	-7938
▁적어도	-7939
▁적응이	-7940
▁전기가	-7941
▁전까지	-7942
▁전부는	-7943
▁전에는	-7944
▁전으로	-7945
▁전학가	-7946
▁전화는	-7947
▁정답을	-7948
▁정답이	-7949
▁정도에	-7950
▁정리되	-7951
▁정리에	-7952
▁정성이	-7953
▁정신과	-7954
▁정신병	-7955
▁정신적	-7956
▁정하고	-7957
▁정확히	-7958
▁조급해	-7959
▁조언이	-7960
▁조용히	-7961
▁종교를	-7962
▁좋다고	-7963
▁좋더라	-7964
▁좋아져	-7965
▁좋아진	-7966
▁좋으니	-7967
▁좋은지	-7968
▁주려고	-7969
▁주름살	-7970
▁주변의	-7971
▁주인공	-7972
▁죽겠다	-7973
▁죽겠어	-7974
▁죽어도	-7975
▁죽을거	-7976
▁줄임말	-7977
▁중간에	-7978
▁중고로	-7979
▁줬으면	-7980
▁지긋지	-7981
▁지나고	-7982
▁지내요	-7983
▁지워질	-7984
▁지쳐요	-7985
▁지쳤어	-7986
▁지치네	-7987
▁직장인	-7988
▁진급할	-7989
▁진통제	-7990
▁질투가	-7991
▁질투를	-7992
▁집까지	-7993
▁짜증남	-7994
▁짝남과	-7995
▁짝남은	-7996
▁짝녀와	-7997
▁찍었네	-7998
▁차단도	-7999
▁차별이	-8000
▁차이인	-8001
▁착각이	-8002
▁참겠어	-8003
▁참아야	-8004
▁창피해	-8005
▁책임질	-8006
▁처음엔	-8007
▁처음이	-8008
▁첫이별	-8009
▁청소는	-8010
▁청소를	-8011
▁축복과	-8012
▁축하해	-8013
▁취직할	-8014
▁취해서	-8015
▁친척들	-8016
▁카톡할	-8017
▁컴터가	-8018
▁클럽을	-8019
▁탓하지	-8020
▁티나나	-8021
▁페북을	-8022
▁포근한	-8023
▁풀렸길	-8024
▁피시방	-8025
▁피하고	-8026
▁필요가	-8027
▁필요도	-8028
▁하겠죠	-8029
▁하기로	-8030
▁하는거	-8031
▁하늘이	-8032
▁하라는	-8033
▁하려면	-8034
▁하루일	-8035
▁하시고	-8036
▁하지마	-8037
▁하지요	-8038
▁학교에	-8039
▁한달반	-8040
▁한달째	-8041
▁한번만	-8042
▁한순간	-8043
▁한없이	-8044
▁한켠에	-8045
▁할게요	-8046
▁할수록	-8047
▁함께면	-8048
▁해내고	-8049
▁해주면	-8050
▁했나봐	-8051
▁했네요	-8052
▁했는지	-8053
▁했더니	-8054
▁행동할	-8055
▁행복이	-8056
▁향수가	-8057
▁허상일	-8058
▁허전할	-8059
▁헷갈려	-8060
▁호르몬	-8061
▁확률이	-8062
▁후배가	-8063
▁후회없	-8064
▁휴유증	-8065
▁흑역사	-8066
▁흔적이	-8067
▁흘러갈	-8068
▁힘내요	-8069
▁힘들면	-8070
남자친구	-8071
더라구요	-8072
르니까요	-8073
만으로도	-8074
받으면서	-8075
보는것도	-8076
사람에게	-8077
이라면요	-8078
이었네요	-8079
이었는데	-8080
적이에요	-8081
중입니다	-8082
질뻔했어	-8083
하겠지만	-8084
하면서도	-8085
한다는데	-8086
해야하나	-8087
▁가고싶다	-8088
▁가까워질	-8089
▁가나봐요	-8090
▁가늠하지	-8091
▁가벼워질	-8092
▁가져가면	-8093
▁가져왔다	-8094
▁가족들과	-8095
▁가치관에	-8096
▁간단하게	-8097
▁간질간질	-8098
▁감성적이	-8099
▁거니까요	-8100
▁거두세요	-8101
▁거짓말이	-8102
▁걱정하면	-8103
▁건가봐요	-8104
▁겨울에는	-8105
▁견뎌봐요	-8106
▁결정하기	-8107
▁결정하는	-8108
▁결혼이나	-8109
▁결혼한지	-8110
▁계산적인	-8111
▁고마워요	-8112
▁고맙다고	-8113
▁고백해야	-8114
▁고백했다	-8115
▁공부하는	-8116
▁공부하러	-8117
▁공부할까	-8118
▁괜찮아지	-8119
▁궁금증을	-8120
▁궁금하면	-8121
▁궁금한게	-8122
▁그것만큼	-8123
▁그러니까	-8124
▁그럴까요	-8125
▁그럴수도	-8126
▁그리움을	-8127
▁그리움이	-8128
▁그분에게	-8129
▁그사람이	-8130
▁기다려야	-8131
▁기다리게	-8132
▁기대치가	-8133
▁길러볼까	-8134
▁까먹었어	-8135
▁깎아야지	-8136
▁깨달음이	-8137
▁끝일지도	-8138
▁나겠어요	-8139
▁나누는게	-8140
▁나아지길	-8141
▁나에게도	-8142
▁나오라고	-8143
▁나오세요	-8144
▁날이에요	-8145
▁남자애랑	-8146
▁내려놓고	-8147
▁내리는게	-8148
▁냉장고에	-8149
▁너덜너덜	-8150
▁너무하네	-8151
▁노력해도	-8152
▁누구보다	-8153
▁누구한테	-8154
▁느낀다면	-8155
▁느려졌어	-8156
▁다가가도	-8157
▁다가오고	-8158
▁다되가네	-8159
▁달리세요	-8160
▁답답하다	-8161
▁답답해서	-8162
▁당연해요	-8163
▁대리효도	-8164
▁데이트는	-8165
▁데이트할	-8166
▁도와줘야	-8167
▁돌아가는	-8168
▁돌아오길	-8169
▁돌아오는	-8170
▁돌아오지	-8171
▁돌아올까	-8172
▁동생이랑	-8173
▁동생인데	-8174
▁됐습니다	-8175
▁되어가길	-8176
▁되어가네	-8177
▁되었는지	-8178
▁두고두고	-8179
▁드는걸로	-8180
▁들어오면	-8181
▁따끔하게	-8182
▁마음가는	-8183
▁마음에게	-8184
▁마음인지	-8185
▁마주치면	-8186
▁마주치지	-8187
▁마지막을	-8188
▁마지막이	-8189
▁만나기만	-8190
▁만나자는	-8191
▁말이예요	-8192
▁말하는게	-8193
▁말해보는	-8194
▁말해야지	-8195
▁맞나봐요	-8196
▁머릿속이	-8197
▁멋있네요	-8198
▁멋지네요	-8199
▁모르겠다	-8200
▁모습으로	-8201
▁몰랐어요	-8202
▁못하는데	-8203
▁못했군요	-8204
▁무너졌어	-8205
▁무뎌지는	-8206
▁문득문득	-8207
▁물리적인	-8208
▁뭐하냐고	-8209
▁뭐하는지	-8210
▁미련없이	-8211
▁미소짓게	-8212
▁미안하대	-8213
▁미화되기	-8214
▁믿었는데	-8215
▁바꾸세요	-8216
▁바꿔볼까	-8217
▁바꿔야지	-8218
▁바디로션	-8219
▁바디워시	-8220
▁바라는게	-8221
▁바란다면	-8222
▁바보같이	-8223
▁반대래요	-8224
▁반복되는	-8225
▁방법이죠	-8226
▁배고파서	-8227
▁배려해야	-8228
▁배우세요	-8229
▁배우자가	-8230
▁배워가는	-8231
▁배워보고	-8232
▁배워볼까	-8233
▁버려야지	-8234
▁베터리가	-8235
▁변해가는	-8236
▁별로네요	-8237
▁보내세요	-8238
▁보냈으니	-8239
▁복잡하게	-8240
▁봐보세요	-8241
▁봐주세요	-8242
▁봤습니다	-8243
▁부모님께	-8244
▁부정적인	-8245
▁부족한가	-8246
▁분명하게	-8247
▁분위기가	-8248
▁브랜드가	-8249
▁비슷하죠	-8250
▁비오는날	-8251
▁비트코인	-8252
▁비혼주의	-8253
▁사귀는데	-8254
▁사귀세요	-8255
▁사귀자고	-8256
▁사귀자는	-8257
▁사람만의	-8258
▁사랑받는	-8259
▁사랑보다	-8260
▁사랑에도	-8261
▁사랑하게	-8262
▁사랑해줄	-8263
▁사랑했어	-8264
▁삭제하는	-8265
▁살고싶어	-8266
▁살아가는	-8267
▁살아야죠	-8268
▁살았는데	-8269
▁상관없이	-8270
▁상대방은	-8271
▁상처받게	-8272
▁생각없이	-8273
▁생각일까	-8274
▁생각지도	-8275
▁생각처럼	-8276
▁생각했던	-8277
▁생일선물	-8278
▁선물해도	-8279
▁선택으로	-8280
▁세상이죠	-8281
▁속박에서	-8282
▁손가락이	-8283
▁솔직하고	-8284
▁쉬어가는	-8285
▁스스로를	-8286
▁스타일에	-8287
▁시간낭비	-8288
▁시간인데	-8289
▁시골에서	-8290
▁시끄러워	-8291
▁시어머니	-8292
▁시작하는	-8293
▁시키세요	-8294
▁식단조절	-8295
▁신경쓰인	-8296
▁실망하지	-8297
▁실용적인	-8298
▁심심한데	-8299
▁싶나봐요	-8300
▁썸인가요	-8301
▁아날로그	-8302
▁아니겠지	-8303
▁아니었어	-8304
▁아무말도	-8305
▁아침마다	-8306
▁아파하고	-8307
▁아프지만	-8308
▁안되겠죠	-8309
▁않습니다	-8310
▁않았네요	-8311
▁않았다면	-8312
▁알겠어서	-8313
▁알바생이	-8314
▁알아가는	-8315
▁애완동물	-8316
▁얘기하지	-8317
▁어디가지	-8318
▁어디에서	-8319
▁어린이집	-8320
▁어울릴까	-8321
▁어장인거	-8322
▁언제부터	-8323
▁얼굴보고	-8324
▁없습니다	-8325
▁없으면서	-8326
▁여우같은	-8327
▁여유롭게	-8328
▁여자인데	-8329
▁여친이랑	-8330
▁여행가고	-8331
▁연락오네	-8332
▁연습하고	-8333
▁연애상담	-8334
▁연애할때	-8335
▁연예인도	-8336
▁영화보고	-8337
▁영화보러	-8338
▁예상하지	-8339
▁오랜연애	-8340
▁외롭다고	-8341
▁웬수네요	-8342
▁웬수예요	-8343
▁의미일까	-8344
▁의심하지	-8345
▁의지해도	-8346
▁이겨내고	-8347
▁이뤄지지	-8348
▁이별이든	-8349
▁이별하면	-8350
▁이사하는	-8351
▁이상한가	-8352
▁이상형을	-8353
▁이야기는	-8354
▁이야기할	-8355
▁이용하는	-8356
▁이제부터	-8357
▁이해해요	-8358
▁인기있는	-8359
▁인연이죠	-8360
▁인정하는	-8361
▁일상으로	-8362
▁일어나야	-8363
▁일요일에	-8364
▁일이라도	-8365
▁일주일이	-8366
▁있었어요	-8367
▁자신만의	-8368
▁자야겠다	-8369
▁자존심을	-8370
▁잘되니까	-8371
▁잘해주면	-8372
▁장난인지	-8373
▁재미있는	-8374
▁쟁취하는	-8375
▁적극적인	-8376
▁전화해도	-8377
▁접촉하는	-8378
▁정리되길	-8379
▁정리하게	-8380
▁정리하길	-8381
▁제정신이	-8382
▁조급하게	-8383
▁종지부를	-8384
▁좋아졌어	-8385
▁좋아한대	-8386
▁좋을지도	-8387
▁주말이네	-8388
▁주말인데	-8389
▁지겨워진	-8390
▁지나가는	-8391
▁지났는데	-8392
▁지났어요	-8393
▁진지하게	-8394
▁집착하게	-8395
▁짝사랑만	-8396
▁차단하고	-8397
▁차례예요	-8398
▁차분하고	-8399
▁찾아오네	-8400
▁척하는게	-8401
▁첫사랑을	-8402
▁첫인상은	-8403
▁최저임금	-8404
▁추운가요	-8405
▁취직이나	-8406
▁친구들은	-8407
▁친구에게	-8408
▁크기만큼	-8409
▁토닥토닥	-8410
▁통보하는	-8411
▁퇴근길에	-8412
▁판도라의	-8413
▁편안하게	-8414
▁편안해질	-8415
▁편하다는	-8416
▁표현하기	-8417
▁피곤해서	-8418
▁한달만에	-8419
▁해달라고	-8420
▁해야겠죠	-8421
▁해야하나	-8422
▁해주는게	-8423
▁해주면서	-8424
▁해줬으면	-8425
▁행복하면	-8426
▁허무하네	-8427
▁헤어지네	-8428
▁헤어짐도	-8429
▁혼인신고	-8430
▁확실하게	-8431
▁확인하고	-8432
▁후회안할	-8433
▁후회하면	-8434
▁훔쳐보는	-8435
▁흐지부지	-8436
▁흘리세요	-8437
▁희생양이	-8438
▁히스테리	-8439
▁힘들거라	-8440
▁힘들어도	-8441
▁힘이드네	-8442
버렸습니다	-8443
었나봅니다	-8444
이었나봐요	-8445
하고싶은데	-8446
하더라고요	-8447
하시겠어요	-8448
해졌나봐요	-8449
▁가능할까요	-8450
▁가져주세요	-8451
▁개강이라니	-8452
▁객관적으로	-8453
▁걱정마세요	-8454
▁것만으로도	-8455
▁고민이네요	-8456
▁고백받았어	-8457
▁고백할까요	-8458
▁괜찮습니다	-8459
▁구체적으로	-8460
▁귀엽겠네요	-8461
▁기대했는데	-8462
▁기도할게요	-8463
▁길러보세요	-8464
▁깊었나봐요	-8465
▁남사친이랑	-8466
▁남편이네요	-8467
▁느껴보세요	-8468
▁다되어가네	-8469
▁다를거예요	-8470
▁달려있겠죠	-8471
▁답답할거라	-8472
▁당신이네요	-8473
▁데이트하고	-8474
▁뒤숭숭하네	-8475
▁따져보세요	-8476
▁때문이겠죠	-8477
▁때문이에요	-8478
▁떨리겠어요	-8479
▁떨어뜨려서	-8480
▁마셔보세요	-8481
▁마음이네요	-8482
▁마음이에요	-8483
▁만들어봐요	-8484
▁모르겠지만	-8485
▁무덤덤해질	-8486
▁무시당하는	-8487
▁문제인가요	-8488
▁물어보거나	-8489
▁미안해하지	-8490
▁믿어주세요	-8491
▁반갑습니다	-8492
▁반했나봐요	-8493
▁변덕스럽게	-8494
▁보내보세요	-8495
▁복잡한가요	-8496
▁봉사활동도	-8497
▁부담스러울	-8498
▁분인가봐요	-8499
▁사람들한테	-8500
▁사람일지도	-8501
▁사랑이라고	-8502
▁사랑이야기	-8503
▁사랑하는지	-8504
▁사랑하세요	-8505
▁사랑합니다	-8506
▁사랑해주는	-8507
▁생각나네요	-8508
▁생각하면서	-8509
▁서운하다고	-8510
▁쉬어가세요	-8511
▁습관처럼은	-8512
▁시간이었을	-8513
▁시간이에요	-8514
▁신경쓰이는	-8515
▁심리일까요	-8516
▁썸이었으면	-8517
▁아껴주세요	-8518
▁아닐거예요	-8519
▁아파하다가	-8520
▁아프겠어요	-8521
▁안되나봐요	-8522
▁안좋아하는	-8523
▁애프터까지	-8524
▁없어졌으면	-8525
▁여사친이랑	-8526
▁영화관이나	-8527
▁왔나봅니다	-8528
▁유통기한이	-8529
▁유효기간이	-8530
▁의미부여는	-8531
▁이별이에요	-8532
▁이별하려고	-8533
▁이야기해요	-8534
▁익숙해지지	-8535
▁인사드리러	-8536
▁인생이에요	-8537
▁인연이라면	-8538
▁인정하세요	-8539
▁일어났더니	-8540
▁일이니까요	-8541
▁일주일이네	-8542
▁잊어버리는	-8543
▁잘하셨어요	-8544
▁장난스러운	-8545
▁재회했는데	-8546
▁전여친이랑	-8547
▁전여친한테	-8548
▁접어두셔요	-8549
▁정리하는데	-8550
▁정리하려고	-8551
▁제자리여도	-8552
▁조금이나마	-8553
▁존중합니다	-8554
▁좋겠습니다	-8555
▁좋아하니까	-8556
▁좋아할까요	-8557
▁좋았을텐데	-8558
▁주말이네요	-8559
▁준비되어야	-8560
▁준비하는데	-8561
▁중독인가봐	-8562
▁중요하겠죠	-8563
▁지긋지긋한	-8564
▁지켜주세요	-8565
▁진정하세요	-8566
▁질투난다고	-8567
▁짝사랑에서	-8568
▁찍어주세요	-8569
▁차단하세요	-8570
▁채워보세요	-8571
▁채워줄게요	-8572
▁챙겨주세요	-8573
▁최선이었을	-8574
▁추천드려요	-8575
▁크시겠어요	-8576
▁태어났을까	-8577
▁팔아보세요	-8578
▁표현하세요	-8579
▁필요한가요	-8580
▁하셨나봐요	-8581
▁한달이에요	-8582
▁행복했으면	-8583
▁헤어지자는	-8584
▁헤어진지도	-8585
▁헬스장에서	-8586
▁혼란스러워	-8587
▁흘렀나봐요	-8588
▁결혼적령기가	-8589
▁고민해보세요	-8590
▁그리운가봐요	-8591
▁기울여보세요	-8592
▁다독여주세요	-8593
▁대화해보세요	-8594
▁도와드릴게요	-8595
▁도전해보세요	-8596
▁드라이플라워	-8597
▁떨쳐버리세요	-8598
▁무덤덤해지는	-8599
▁받아들이세요	-8600
▁배려해보세요	-8601
▁복잡한가봐요	-8602
▁부족한가봐요	-8603
▁빠져나오세요	-8604
▁상의해보세요	-8605
▁새출발하세요	-8606
▁생각하나봐요	-8607
▁생각해봅니다	-8608
▁서운하겠어요	-8609
▁설득해보세요	-8610
▁신청해보세요	-8611
▁여기까지였을	-8612
▁연락해도될까	-8613
▁연락했습니다	-8614
▁의지해보세요	-8615
▁이야기하세요	-8616
▁이어나가는게	-8617
▁익숙해지지가	-8618
▁있었나봅니다	-8619
▁정리했습니다	-8620
▁제안해보세요	-8621
▁존중해줬으면	-8622
▁좋아하는데도	-8623
▁좋아했나봐요	-8624
▁중요하니까요	-8625
▁착잡하겠어요	-8626
▁칭찬해보세요	-8627
▁표현해주세요	-8628
▁피곤하겠어요	-8629
▁허전하겠어요	-8630
▁허전한가봐요	-8631
▁헛헛한가봐요	-8632
▁헤어지고나서	-8633
▁화이트데이에	-8634
▁힘들었을텐데	-8635
▁결혼적령기예요	-8636
▁그린라이트일까	-8637
▁당황하셨겠어요	-8638
▁들어맞나봅니다	-8639
▁마음정리하세요	-8640
▁받아들여보세요	-8641
▁사람이었나봐요	-8642
▁사랑이었나봐요	-8643
▁사랑하나봅니다	-8644
▁신경쓰이나봐요	-8645
▁사랑이었으니까요	-8646
▁띵	-8647
▁섞	-8648
▁옛	-8649
▁젊	-8650
▁쪘	-8651
▁텁	-8652
가나	-8653
경우	-8654
국수	-8655
기정	-8656
긴건	-8657
밥통	-8658
서클	-8659
세부	-8660
어싱	-8661
자료	-8662
장판	-8663
전과	-8664
징글	-8665
짬뽕	-8666
쳐요	-8667
크가	-8668
▁갚고	-8669
▁갚을	-8670
▁갱신	-8671
▁걔도	-8672
▁걔랑	-8673
▁거릴	-8674
▁걷기	-8675
▁겁이	-8676
▁골반	-8677
▁광탈	-8678
▁광합	-8679
▁권리	-8680
▁권유	-8681
▁근무	-8682
▁근질	-8683
▁깎인	-8684
▁꼈어	-8685
▁꼬까	-8686
▁꼬르	-8687
▁꿀꿀	-8688
▁끄고	-8689
▁낙담	-8690
▁낙엽	-8691
▁낫고	-8692
▁낫다	-8693
▁났네	-8694
▁낮춰	-8695
▁냈어	-8696
▁냉동	-8697
▁냐에	-8698
▁넓고	-8699
▁숏	-8700
▁쌈	-8701
▁썩	-8702
▁썰	-8703
거다	-8704
겟죠	-8705
눅눅	-8706
다시	-8707
도염	-8708
런치	-8709
면과	-8710
모호	-8711
붓고	-8712
새끼	-8713
씰룩	-8714
읽씹	-8715
장애	-8716
주네	-8717
켰어	-8718
▁건방	-8719
▁넣고	-8720
▁녹음	-8721
▁녹차	-8722
▁놈의	-8723
▁높이	-8724
▁눅눅	-8725
▁눕지	-8726
▁뉴스	-8727
▁닫고	-8728
▁닮아	-8729
▁덕수	-8730
▁덕질	-8731
▁독서	-8732
▁독학	-8733
▁등록	-8734
▁디자	-8735
▁디저	-8736
▁딸까	-8737
▁땅을	-8738
▁땡겨	-8739
▁땡기	-8740
▁떴어	-8741
▁뚫어	-8742
▁뛰는	-8743
▁뜻은	-8744
▁라디	-8745
▁라인	-8746
▁롱패	-8747
▁맴찢	-8748
▁면세	-8749
▁민감	-8750
▁민망	-8751
▁밑거	-8752
▁박도	-8753
▁밟힐	-8754
▁복근	-8755
▁볶는	-8756
▁부는	-8757
▁북받	-8758
▁블루	-8759
▁빛이	-8760
▁빵꾸	-8761
▁빼도	-8762
▁빼면	-8763
▁뻐근	-8764
▁뻔뻔	-8765
▁뽑아	-8766
▁뿌듯	-8767
▁뿌얘	-8768
▁삐져	-8769
▁산다	-8770
▁산에	-8771
▁삶도	-8772
▁삶이	-8773
▁삼주	-8774
▁색감	-8775
▁샜어	-8776
▁서적	-8777
▁섭섭	-8778
▁숏컷	-8779
▁숙면	-8780
▁숨쉬	-8781
▁쉴만	-8782
▁쌍커	-8783
▁쌓는	-8784
▁써야	-8785
▁썼길	-8786
▁쓴지	-8787
▁쓸모	-8788
▁씨앗	-8789
▁씹어	-8790
▁씻어	-8791
▁앉아	-8792
▁애그	-8793
▁앱이	-8794
▁양배	-8795
▁얽힌	-8796
▁엊그	-8797
▁역류	-8798
▁연연	-8799
;;	-8800
▁둬	-8801
값을	-8802
것에	-8803
구만	-8804
권이	-8805
롭지	-8806
림도	-8807
방안	-8808
방향	-8809
벨이	-8810
볼께	-8811
셔도	-8812
쑤셔	-8813
었대	-8814
육이	-8815
일로	-8816
작용	-8817
전의	-8818
조리	-8819
쿠폰	-8820
태솔	-8821
표시	-8822
▁가재	-8823
▁난다	-8824
▁받게	-8825
▁쑤셔	-8826
▁옥죄	-8827
▁원서	-8828
▁윗집	-8829
▁익숨	-8830
▁읽고	-8831
▁읽을	-8832
▁잃을	-8833
▁잊게	-8834
▁작별	-8835
▁잘참	-8836
▁잤네	-8837
▁쟁여	-8838
▁존경	-8839
▁죄는	-8840
▁죄송	-8841
▁주소	-8842
▁줬어	-8843
▁쥐꼬	-8844
▁짐작	-8845
▁쪄서	-8846
▁쪼잔	-8847
▁쪽팔	-8848
▁찌뿌	-8849
▁찌푸	-8850
▁찰랑	-8851
▁찾으	-8852
▁채우	-8853
▁철은	-8854
▁철이	-8855
▁체인	-8856
▁침착	-8857
▁컨설	-8858
▁컴백	-8859
▁코코	-8860
▁콕콕	-8861
▁콜록	-8862
▁쿠폰	-8863
▁클스	-8864
▁탄탄	-8865
▁탔다	-8866
▁탔던	-8867
▁텀블	-8868
▁텁텁	-8869
▁텅비	-8870
▁트집	-8871
▁특히	-8872
▁팀플	-8873
▁팔찌	-8874
▁폰겜	-8875
▁폰케	-8876
▁푸석	-8877
▁품어	-8878
▁품에	-8879
▁햇볕	-8880
▁향기	-8881
▁향이	-8882
▁허례	-8883
▁헌팅	-8884
▁헹궈	-8885
▁활기	-8886
▁활용	-8887
▁효과	-8888
▁효율	-8889
가지고	-8890
가지구	-8891
각한데	-8892
강신청	-8893
개발을	-8894
거같네	-8895
것만은	-8896
격증을	-8897
곳으로	-8898
균형이	-8899
▁꼴	-8900
▁낀	-8901
▁댓	-8902
▁롤	-8903
▁켠	-8904
고는	-8905
기자	-8906
단은	-8907
볶음	-8908
식장	-8909
찌개	-8910
커페	-8911
투리	-8912
▁거래	-8913
▁고구	-8914
▁댓글	-8915
▁발등	-8916
▁밥도	-8917
▁별별	-8918
▁본거	-8919
▁아웃	-8920
▁열쇠	-8921
▁원피	-8922
▁이웃	-8923
▁일일	-8924
▁잠길	-8925
▁재테	-8926
▁전생	-8927
▁종목	-8928
▁집사	-8929
▁추적	-8930
▁춘곤	-8931
▁출국	-8932
▁카메	-8933
▁카풀	-8934
▁향한	-8935
그치지	-8936
기자랑	-8937
기정화	-8938
년만난	-8939
년사귄	-8940
노래방	-8941
다워야	-8942
도해줄	-8943
돌아오	-8944
드레스	-8945
들어가	-8946
랐다가	-8947
랑이가	-8948
러들지	-8949
렉트로	-8950
려지죠	-8951
리예요	-8952
메랑이	-8953
모습만	-8954
모습을	-8955
몰웨딩	-8956
물주물	-8957
박치기	-8958
버렸나	-8959
베리아	-8960
보기만	-8961
보시면	-8962
볶음밥	-8963
봤을때	-8964
쁜건지	-8965
사이가	-8966
서부터	-8967
솔와서	-8968
수라도	-8969
순간이	-8970
순위에	-8971
스센터	-8972
스트나	-8973
스트하	-8974
시켜야	-8975
쓰는게	-8976
안됐네	-8977
야할지	-8978
어져요	-8979
어지고	-8980
와주지	-8981
요일이	-8982
용품이	-8983
움에는	-8984
워지고	-8985
워크가	-8986
위래요	-8987
육아가	-8988
으려니	-8989
이기가	-8990
이스를	-8991
이어야	-8992
이진지	-8993
일수도	-8994
자료를	-8995
자리에	-8996
잡이가	-8997
조사는	-8998
조절이	-8999
CC	-9000
검진	-9001
곡에	-9002
괘씸	-9003
기름	-9004
깍째	-9005
담길	-9006
돌림	-9007
동을	-9008
리마	-9009
릿빛	-9010
본적	-9011
비에	-9012
상화	-9013
수의	-9014
인건	-9015
자아	-9016
절염	-9017
절할	-9018
중간	-9019
처녀	-9020
▁CC	-9021
▁고와	-9022
▁괘씸	-9023
▁교통	-9024
▁깜깜	-9025
▁넘을	-9026
▁디져	-9027
▁쓰여	-9028
▁웃기	-9029
▁인강	-9030
▁퇴사	-9031
▁플라	-9032
▁후아	-9033
▁흘려	-9034
깍째깍	-9035
불가한	-9036
사정을	-9037
싸해도	-9038
액형이	-9039
이기도	-9040
주가지	-9041
주려는	-9042
주저리	-9043
주정도	-9044
지는듯	-9045
직이수	-9046
질렀어	-9047
차림도	-9048
채때는	-9049
카로워	-9050
코드가	-9051
크서클	-9052
키스는	-9053
트롤을	-9054
트지로	-9055
평가되	-9056
하더라	-9057
하려구	-9058
하려나	-9059
하시길	-9060
할만한	-9061
합시다	-9062
해졌길	-9063
해줬어	-9064
행준비	-9065
활용도	-9066
히더라	-9067
▁가까이	-9068
▁가리면	-9069
▁가벼움	-9070
▁가시밭	-9071
▁가야죠	-9072
▁가운데	-9073
▁가지를	-9074
▁각자가	-9075
▁간단한	-9076
▁간식도	-9077
▁갈만한	-9078
▁감당이	-9079
▁감사한	-9080
▁감수성	-9081
▁같음을	-9082
▁갚아나	-9083
▁개기름	-9084
▁개념만	-9085
▁개념이	-9086
▁건데요	-9087
▁건방져	-9088
▁건조기	-9089
▁건조한	-9090
▁걸려요	-9091
▁겁이나	-9092
▁겉모습	-9093
▁격식은	-9094
▁결심이	-9095
▁결심한	-9096
▁경우는	-9097
▁경제력	-9098
▁경험은	-9099
▁쩌	-9100
▁탐	-9101
▁팬	-9102
▁펑	-9103
고문	-9104
골이	-9105
기견	-9106
널을	-9107
넛오	-9108
달반	-9109
둥해	-9110
라뇨	-9111
록초	-9112
루즈	-9113
뮤니	-9114
빈과	-9115
수리	-9116
오톡	-9117
울때	-9118
월의	-9119
이한	-9120
전순	-9121
조를	-9122
주차	-9123
지망	-9124
차로	-9125
출할	-9126
취를	-9127
팅을	-9128
하달	-9129
하를	-9130
▁가르	-9131
▁기차	-9132
▁났어	-9133
▁들여	-9134
▁마찬	-9135
▁실로	-9136
▁온전	-9137
▁쩌는	-9138
▁청구	-9139
▁팬미	-9140
▁펑펑	-9141
▁호텔	-9142
끈거려	-9143
넛오일	-9144
록초록	-9145
뮤니티	-9146
바니다	-9147
였더라	-9148
전순결	-9149
체인이	-9150
카오톡	-9151
하달까	-9152
▁가르쳐	-9153
▁계신가	-9154
▁고구마	-9155
▁고기앞	-9156
▁고생이	-9157
▁고와야	-9158
▁고장이	-9159
▁곤두세	-9160
▁곳이요	-9161
▁공감할	-9162
▁공시생	-9163
▁과거의	-9164
▁과일을	-9165
▁과정을	-9166
▁과정일	-9167
▁관절염	-9168
▁광고가	-9169
▁광합성	-9170
▁괴롭혀	-9171
▁교복이	-9172
▁교통사	-9173
▁교회에	-9174
▁구두로	-9175
▁구릿빛	-9176
▁구분이	-9177
▁구분짓	-9178
▁구분해	-9179
▁구하셨	-9180
▁구해야	-9181
▁권리로	-9182
▁귀엽대	-9183
▁균형이	-9184
▁그나저	-9185
▁그랬을	-9186
▁그만큰	-9187
▁글자만	-9188
▁급하게	-9189
▁기름값	-9190
▁기분나	-9191
▁기분만	-9192
▁기운낼	-9193
▁기운을	-9194
▁긴장되	-9195
▁길러도	-9196
▁깊었을	-9197
▁까먹고	-9198
▁까먹어	-9199
▁왼	-9200
깃만	-9201
꽂이	-9202
닭발	-9203
몸일	-9204
브네	-9205
비집	-9206
싹한	-9207
저것	-9208
제차	-9209
주행	-9210
중을	-9211
착이	-9212
치죠	-9213
하내	-9214
할땐	-9215
햇다	-9216
▁기초	-9217
▁기한	-9218
▁달이	-9219
▁닭발	-9220
▁돌봐	-9221
▁등이	-9222
▁반납	-9223
▁싸는	-9224
▁왼손	-9225
▁질거	-9226
▁쫄면	-9227
▁커지	-9228
▁탄생	-9229
▁피고	-9230
▁할래	-9231
▁휴양	-9232
꺼비집	-9233
눈물을	-9234
몸일으	-9235
분해서	-9236
세포에	-9237
율주행	-9238
잼에게	-9239
▁고가의	-9240
▁곱다고	-9241
▁공부도	-9242
▁기초대	-9243
▁깎아요	-9244
▁깨닫게	-9245
▁꺼지기	-9246
▁꼬까옷	-9247
▁꼬르륵	-9248
▁꼬리가	-9249
▁꼬시지	-9250
▁꽃꽂이	-9251
▁꽃바구	-9252
▁꿀꿀해	-9253
▁꿈같다	-9254
▁꿈꾸던	-9255
▁꿨는데	-9256
▁꿨는지	-9257
▁끝내긴	-9258
▁끝이보	-9259
▁나온거	-9260
▁나올까	-9261
▁나왔길	-9262
▁낙이죠	-9263
▁난방이	-9264
▁날에만	-9265
▁날이야	-9266
▁남겨진	-9267
▁남는건	-9268
▁남았길	-9269
▁남편을	-9270
▁납니다	-9271
▁낮잠은	-9272
▁내냐구	-9273
▁내년이	-9274
▁내리기	-9275
▁내릴까	-9276
▁내일의	-9277
▁냉방비	-9278
▁냉정할	-9279
▁노동을	-9280
▁노후가	-9281
▁놀까요	-9282
▁놀아서	-9283
▁높겠죠	-9284
▁높으면	-9285
▁놓쳐서	-9286
▁놓쳤다	-9287
▁놓쳤어	-9288
▁누굴까	-9289
▁눅눅해	-9290
▁눈살이	-9291
▁눈썹이	-9292
▁다녀야	-9293
▁다녀온	-9294
▁다니고	-9295
▁다른걸	-9296
▁다육이	-9297
▁다음날	-9298
▁다쳤어	-9299
▁논	-9300
▁빽	-9301
▁삔	-9302
던곳	-9303
던데	-9304
되실	-9305
들로	-9306
리나	-9307
마저	-9308
먼이	-9309
무진	-9310
백번	-9311
분크	-9312
빙수	-9313
서서	-9314
섹스	-9315
소가	-9316
송장	-9317
수한	-9318
싶고	-9319
야를	-9320
주를	-9321
줍게	-9322
클링	-9323
타민	-9324
탈때	-9325
터를	-9326
판의	-9327
풋이	-9328
▁못나	-9329
▁병이	-9330
▁섹스	-9331
▁송장	-9332
▁실력	-9333
▁앞둔	-9334
▁정량	-9335
▁키스	-9336
▁힘을	-9337
궁무진	-9338
냈는데	-9339
단점을	-9340
력소가	-9341
봐주는	-9342
분크림	-9343
소에서	-9344
스터를	-9345
우먼이	-9346
천적인	-9347
▁꼰대가	-9348
▁나네요	-9349
▁남친의	-9350
▁단점을	-9351
▁달력에	-9352
▁닮아서	-9353
▁답이야	-9354
▁답장해	-9355
▁당번을	-9356
▁당황할	-9357
▁대놓고	-9358
▁대답이	-9359
▁대리님	-9360
▁대충한	-9361
▁대화한	-9362
▁덕수궁	-9363
▁데려가	-9364
▁도망가	-9365
▁독서와	-9366
▁돌담길	-9367
▁돌리고	-9368
▁돌잔치	-9369
▁동거중	-9370
▁동물원	-9371
▁동성애	-9372
▁동성을	-9373
▁동시에	-9374
▁동아리	-9375
▁동안의	-9376
▁동전의	-9377
▁되가네	-9378
▁되도록	-9379
▁되돌릴	-9380
▁될수있	-9381
▁두근두	-9382
▁두분이	-9383
▁둘만의	-9384
▁둘이서	-9385
▁뒀네요	-9386
▁뒹굴거	-9387
▁뒹굴뒹	-9388
▁들여다	-9389
▁들이댔	-9390
▁듭니다	-9391
▁등으로	-9392
▁디저트	-9393
▁따르기	-9394
▁따지는	-9395
▁딸기가	-9396
▁땀나네	-9397
▁땀난다	-9398
▁땅만큼	-9399
▁뺏	-9400
▁풍	-9401
갖지	-9402
년여	-9403
려야	-9404
매가	-9405
면에	-9406
배정	-9407
번째	-9408
보길	-9409
외비	-9410
의해	-9411
이게	-9412
주정	-9413
타기	-9414
▁기계	-9415
▁단짠	-9416
▁데에	-9417
▁독특	-9418
▁돋을	-9419
▁땜에	-9420
▁막장	-9421
▁문질	-9422
▁번복	-9423
▁황사	-9424
년동거	-9425
년여의	-9426
인가를	-9427
집에서	-9428
▁공감을	-9429
▁과외비	-9430
▁그런건	-9431
▁날들이	-9432
▁냄새나	-9433
▁돌보길	-9434
▁때리고	-9435
▁땡기네	-9436
▁떠는거	-9437
▁떠올라	-9438
▁떠올려	-9439
▁떡졌어	-9440
▁떨쳐낼	-9441
▁또다시	-9442
▁똑같지	-9443
▁뜨겁게	-9444
▁뜨겁고	-9445
▁라면봉	-9446
▁로봇도	-9447
▁롱패딩	-9448
▁마다할	-9449
▁막말이	-9450
▁만남을	-9451
▁만남의	-9452
▁만족을	-9453
▁만하죠	-9454
▁많데요	-9455
▁말로만	-9456
▁말문이	-9457
▁말았네	-9458
▁말하기	-9459
▁맛없어	-9460
▁맞았어	-9461
▁맞이할	-9462
▁매몰찬	-9463
▁맥주병	-9464
▁맨날맨	-9465
▁먹먹함	-9466
▁먹었니	-9467
▁먹었다	-9468
▁먹을게	-9469
▁먹을래	-9470
▁멋있죠	-9471
▁메모로	-9472
▁메모리	-9473
▁모발이	-9474
▁모태솔	-9475
▁목적은	-9476
▁목표가	-9477
▁목표는	-9478
▁몰랐던	-9479
▁몸값을	-9480
▁못생긴	-9481
▁못잊는	-9482
▁못잊을	-9483
▁무너짐	-9484
▁무뎌진	-9485
▁무리에	-9486
▁무섭고	-9487
▁무섭죠	-9488
▁무소음	-9489
▁문의해	-9490
▁문자가	-9491
▁문질러	-9492
▁물건들	-9493
▁미래의	-9494
▁미리미	-9495
▁미치지	-9496
▁미화되	-9497
▁밀당을	-9498
▁밀당일	-9499
걸리	-9500
구가	-9501
기운	-9502
는것	-9503
늦게	-9504
다네	-9505
된거	-9506
들요	-9507
많은	-9508
박씨	-9509
부분	-9510
부탁	-9511
분만	-9512
사량	-9513
시킬	-9514
씨방	-9515
이란	-9516
일지	-9517
젝트	-9518
종료	-9519
▁SD	-9520
▁가사	-9521
▁개야	-9522
▁꽃게	-9523
▁끊겼	-9524
▁세수	-9525
▁신선	-9526
▁여부	-9527
▁자식	-9528
▁저금	-9529
▁천지	-9530
▁촬영	-9531
▁코트	-9532
▁타도	-9533
▁타임	-9534
▁평일	-9535
▁하품	-9536
다는거	-9537
사량을	-9538
쥬스는	-9539
하던게	-9540
▁고백해	-9541
▁그랬지	-9542
▁꽃게탕	-9543
▁나날을	-9544
▁대부분	-9545
▁민망한	-9546
▁밑바닥	-9547
▁바늘과	-9548
▁바닥을	-9549
▁바래다	-9550
▁바보짓	-9551
▁바쁘네	-9552
▁바쁠때	-9553
▁반가울	-9554
▁반가워	-9555
▁반대가	-9556
▁반배정	-9557
▁반장을	-9558
▁받았다	-9559
▁받으시	-9560
▁받으신	-9561
▁받을까	-9562
▁받지도	-9563
▁발전할	-9564
▁방면에	-9565
▁방심한	-9566
▁배려가	-9567
▁버려진	-9568
▁버렸다	-9569
▁버티지	-9570
▁벌어요	-9571
▁벗어날	-9572
▁베였어	-9573
▁베풀되	-9574
▁베프랑	-9575
▁변신은	-9576
▁변한것	-9577
▁별다른	-9578
▁복받은	-9579
▁복제가	-9580
▁본받을	-9581
▁봤으면	-9582
▁부딪히	-9583
▁부르지	-9584
▁부작용	-9585
▁북받쳐	-9586
▁북치기	-9587
▁분담을	-9588
▁분명한	-9589
▁분야를	-9590
▁분출할	-9591
▁불행을	-9592
▁브런치	-9593
▁블랙박	-9594
▁블루투	-9595
▁비가오	-9596
▁비교돼	-9597
▁비난만	-9598
▁비밀로	-9599
▁뷔	-9600
▁옮	-9601
▁줬	-9602
가짐	-9603
같다	-9604
관념	-9605
끝이	-9606
니즘	-9607
당황	-9608
되고	-9609
뚝해	-9610
띠를	-9611
론가	-9612
몸이	-9613
물이	-9614
상실	-9615
올게	-9616
잡는	-9617
주시	-9618
척해	-9619
철과	-9620
추즙	-9621
턴을	-9622
해놓	-9623
험실	-9624
▁경향	-9625
▁구걸	-9626
▁덜어	-9627
▁마카	-9628
▁뷔페	-9629
▁오긴	-9630
▁와우	-9631
▁진전	-9632
▁짬뽕	-9633
▁차임	-9634
과하죠	-9635
관념에	-9636
그램을	-9637
니즘을	-9638
뚝뚝해	-9639
소기업	-9640
지못한	-9641
패턴을	-9642
확하게	-9643
▁같을까	-9644
▁개당황	-9645
▁게임할	-9646
▁경향이	-9647
▁과에서	-9648
▁괴물이	-9649
▁그때는	-9650
▁그래봤	-9651
▁낮잠을	-9652
▁마시러	-9653
▁마카롱	-9654
▁말해봐	-9655
▁멈추고	-9656
▁민감한	-9657
▁비밀이	-9658
▁비슷해	-9659
▁비싸다	-9660
▁비싸죠	-9661
▁비용은	-9662
▁비타민	-9663
▁빌게요	-9664
▁빌리면	-9665
▁빵꾸난	-9666
▁빼놓지	-9667
▁뻔하다	-9668
▁뿌듯할	-9669
▁사갈까	-9670
▁사과를	-9671
▁사귄다	-9672
▁사셔야	-9673
▁사수가	-9674
▁사실을	-9675
▁사주를	-9676
▁사진이	-9677
▁사춘기	-9678
▁사투리	-9679
▁사표를	-9680
▁사회를	-9681
▁살려도	-9682
▁살려줘	-9683
▁상대와	-9684
▁상상은	-9685
▁상의도	-9686
▁상처준	-9687
▁생기기	-9688
▁생기죠	-9689
▁생기지	-9690
▁생긴거	-9691
▁생생한	-9692
▁생활이	-9693
▁샤워가	-9694
▁샤워를	-9695
▁서운한	-9696
▁서적을	-9697
▁서점에	-9698
▁선풍기	-9699
▁댄	-9700
감정	-9701
그래	-9702
낌새	-9703
눴길	-9704
동생	-9705
러운	-9706
서는	-9707
용이	-9708
일링	-9709
일을	-9710
있게	-9711
제로	-9712
추기	-9713
취제	-9714
편지	-9715
▁곱씹	-9716
▁까봐	-9717
▁낌새	-9718
▁댄디	-9719
▁만의	-9720
▁말들	-9721
▁외식	-9722
▁요긴	-9723
▁졸리	-9724
▁중의	-9725
▁짜지	-9726
▁찔러	-9727
▁차리	-9728
▁틈틈	-9729
▁현상	-9730
료네요	-9731
었다고	-9732
였지만	-9733
추기면	-9734
탈취제	-9735
▁끼세요	-9736
▁낌새가	-9737
▁나눴길	-9738
▁남동생	-9739
▁놀이터	-9740
▁누군가	-9741
▁때라고	-9742
▁받겠지	-9743
▁변하니	-9744
▁변한게	-9745
▁선물할	-9746
▁설레서	-9747
▁성덕이	-9748
▁성별은	-9749
▁성분이	-9750
▁성숙한	-9751
▁성장할	-9752
▁성향이	-9753
▁세우고	-9754
▁세우지	-9755
▁센스가	-9756
▁소개해	-9757
▁소문은	-9758
▁소문일	-9759
▁소식을	-9760
▁소유가	-9761
▁소중히	-9762
▁속상한	-9763
▁손톱이	-9764
▁손해배	-9765
▁솔로야	-9766
▁쇼핑은	-9767
▁쇼핑을	-9768
▁수다를	-9769
▁수도가	-9770
▁수많은	-9771
▁수십번	-9772
▁수영장	-9773
▁수요일	-9774
▁수줍게	-9775
▁순서는	-9776
▁순수한	-9777
▁술기운	-9778
▁술자리	-9779
▁술주정	-9780
▁숫자일	-9781
▁쉬셔야	-9782
▁쉬시길	-9783
▁슈퍼문	-9784
▁스쳐도	-9785
▁스키탈	-9786
▁스킨쉽	-9787
▁스테끼	-9788
▁시기였	-9789
▁시대는	-9790
▁시도해	-9791
▁시선이	-9792
▁시작과	-9793
▁시켜줘	-9794
▁시키지	-9795
▁식물을	-9796
▁식비가	-9797
▁식어서	-9798
▁식이요	-9799
▁B	-9800
▁압	-9801
관에	-9802
그란	-9803
기라	-9804
깐깐	-9805
데기	-9806
람을	-9807
방은	-9808
방학	-9809
빌려	-9810
션은	-9811
없죠	-9812
예보	-9813
오르	-9814
우울	-9815
음만	-9816
이냐	-9817
있네	-9818
정말	-9819
직한	-9820
키우	-9821
▁가습	-9822
▁구상	-9823
▁깐깐	-9824
▁꿰메	-9825
▁때의	-9826
▁맞음	-9827
▁성급	-9828
▁움츠	-9829
▁일정	-9830
▁입는	-9831
▁잘게	-9832
▁중이	-9833
▁지식	-9834
▁타로	-9835
▁피맥	-9836
▁후배	-9837
긴다는	-9838
년인데	-9839
들었어	-9840
맥이요	-9841
우제를	-9842
장해요	-9843
적인데	-9844
▁가방은	-9845
▁가습기	-9846
▁고데기	-9847
▁기관에	-9848
▁남자로	-9849
▁노처녀	-9850
▁도자기	-9851
▁동그란	-9852
▁막말을	-9853
▁맞아서	-9854
▁못하죠	-9855
▁반했어	-9856
▁봄방학	-9857
▁부자님	-9858
▁비판의	-9859
▁살아도	-9860
▁상메가	-9861
▁속도가	-9862
▁신기한	-9863
▁신기해	-9864
▁신나게	-9865
▁신선한	-9866
▁신을까	-9867
▁신혼집	-9868
▁실내로	-9869
▁실천이	-9870
▁실행에	-9871
▁실험실	-9872
▁싫은가	-9873
▁싫지는	-9874
▁심하네	-9875
▁심하대	-9876
▁심하면	-9877
▁싶었던	-9878
▁쌍커풀	-9879
▁쌓인다	-9880
▁쌩얼도	-9881
▁썸타다	-9882
▁썸탈때	-9883
▁썼다가	-9884
▁쓴만큼	-9885
▁아깝다	-9886
▁아깝지	-9887
▁아니셨	-9888
▁아닌가	-9889
▁아들을	-9890
▁아련한	-9891
▁아물길	-9892
▁아물어	-9893
▁아쉬움	-9894
▁아이구	-9895
▁아침밥	-9896
▁아파트	-9897
▁아플까	-9898
▁악몽과	-9899
▁걍	-9900
▁덧	-9901
▁를	-9902
구쳐	-9903
길게	-9904
동진	-9905
러니	-9906
버는	-9907
소연	-9908
스런	-9909
우선	-9910
의끝	-9911
이에	-9912
일꺼	-9913
있죠	-9914
잡고	-9915
준것	-9916
차이	-9917
▁겪은	-9918
▁골인	-9919
▁기나	-9920
▁너란	-9921
▁도움	-9922
▁뒤처	-9923
▁몸짓	-9924
▁못믿	-9925
▁미쳐	-9926
▁부려	-9927
▁빚이	-9928
▁소가	-9929
▁쓰네	-9930
▁양이	-9931
▁줄여	-9932
▁지침	-9933
▁짧을	-9934
▁차용	-9935
▁해낸	-9936
▁환해	-9937
름신이	-9938
보니까	-9939
양일까	-9940
용카드	-9941
장구쳐	-9942
▁기나긴	-9943
▁끄세요	-9944
▁내딛으	-9945
▁단수가	-9946
▁돈버는	-9947
▁따돌림	-9948
▁멋있어	-9949
▁바보지	-9950
▁복잡해	-9951
▁사줄까	-9952
▁악몽을	-9953
▁악수를	-9954
▁안나와	-9955
▁안되서	-9956
▁안맞는	-9957
▁안읽씹	-9958
▁안전이	-9959
▁안정을	-9960
▁안하기	-9961
▁안하려	-9962
▁안한다	-9963
▁안햇다	-9964
▁않다고	-9965
▁않다면	-9966
▁알뜰한	-9967
▁알람을	-9968
▁압니다	-9969
▁애인이	-9970
▁애절한	-9971
▁애정의	-9972
▁애정이	-9973
▁애착이	-9974
▁애키우	-9975
▁야근이	-9976
▁야근해	-9977
▁약먹기	-9978
▁약이긴	-9979
▁양다리	-9980
▁양면과	-9981
▁양식을	-9982
▁어른이	-9983
▁어린데	-9984
▁어머나	-9985
▁어울릴	-9986
▁어장의	-9987
▁어째서	-9988
▁어플에	-9989
▁언니가	-9990
▁언어도	-9991
▁없거든	-9992
▁없이도	-9993
▁여기는	-9994
▁여기다	-9995
▁여기만	-9996
▁여러번	-9997
▁여유는	-9998
▁여친과	-9999
go	-10000
▁깬	-10001
▁넥	-10002
▁듬	-10003
▁솜	-10004
▁얇	-10005
▁쳇	-10006
▁촉	-10007
구죠	-10008
댓말	-10009
되게	-10010
보까	-10011
샐러	-10012
슬려	-10013
씨가	-10014
짤릴	-10015
칠까	-10016
택근	-10017
프로	-10018
휴가	-10019
▁겠죠	-10020
▁금물	-10021
▁날려	-10022
▁넥타	-10023
▁눌러	-10024
▁단어	-10025
▁몇명	-10026
▁모의	-10027
▁무게	-10028
▁받니	-10029
▁봤나	-10030
▁분배	-10031
▁살게	-10032
▁샐러	-10033
▁장만	-10034
▁짤릴	-10035
▁책장	-10036
일이야	-10037
택근무	-10038
▁가라고	-10039
▁간다고	-10040
▁거슬려	-10041
▁계기를	-10042
▁공부가	-10043
▁꼼꼼한	-10044
▁넥타이	-10045
▁느낌을	-10046
▁도구죠	-10047
▁만날땐	-10048
▁머리를	-10049
▁무게를	-10050
▁바꾸면	-10051
▁보기만	-10052
▁분배를	-10053
▁사귄지	-10054
▁살만해	-10055
▁새치가	-10056
▁샐러드	-10057
▁솜씨가	-10058
▁시간의	-10059
▁여친을	-10060
▁여행이	-10061
▁역류성	-10062
▁연락과	-10063
▁영상을	-10064
▁예식장	-10065
▁예측할	-10066
▁오래전	-10067
▁오로라	-10068
▁오르고	-10069
▁오빠들	-10070
▁오빠랑	-10071
▁오셨길	-10072
▁오시면	-10073
▁오지마	-10074
▁옥상에	-10075
▁옥죄지	-10076
▁올라갈	-10077
▁올려봐	-10078
▁옵니다	-10079
▁옷깃만	-10080
▁완벽할	-10081
▁외모는	-10082
▁외모에	-10083
▁외부의	-10084
▁외제차	-10085
▁요구가	-10086
▁요리해	-10087
▁욕심에	-10088
▁욕심의	-10089
▁욜로의	-10090
▁용서를	-10091
▁우연을	-10092
▁울었네	-10093
▁웃겨봐	-10094
▁원피스	-10095
▁월급만	-10096
▁웬수죠	-10097
▁웹툰이	-10098
▁위기야	-10099
고민	-10100
놈들	-10101
두통	-10102
룽지	-10103
리며	-10104
마려	-10105
싫어	-10106
안상	-10107
어져	-10108
인척	-10109
있다	-10110
적한	-10111
증이	-10112
집에	-10113
차단	-10114
후에	-10115
▁높은	-10116
▁말라	-10117
▁맛도	-10118
▁목도	-10119
▁뭐니	-10120
▁분석	-10121
▁사적	-10122
▁사줄	-10123
▁살살	-10124
▁성이	-10125
▁이룰	-10126
▁잊은	-10127
▁잠겨	-10128
▁조명	-10129
▁주위	-10130
▁챙겼	-10131
▁캬아	-10132
으려구	-10133
척거리	-10134
하기만	-10135
할지도	-10136
▁가스불	-10137
▁간다면	-10138
▁귀찮게	-10139
▁김치도	-10140
▁났으면	-10141
▁내면을	-10142
▁노력해	-10143
▁누룽지	-10144
▁달라졌	-10145
▁맞출까	-10146
▁맞춰줄	-10147
▁물증이	-10148
▁받아도	-10149
▁보안상	-10150
▁불타올	-10151
▁상상을	-10152
▁설명이	-10153
▁소심한	-10154
▁안돼나	-10155
▁원망과	-10156
▁위대한	-10157
▁위축된	-10158
▁위치가	-10159
▁위험할	-10160
▁유료로	-10161
▁유명한	-10162
▁유세부	-10163
▁은근히	-10164
▁은행에	-10165
▁음식이	-10166
▁음악감	-10167
▁음악을	-10168
▁음악이	-10169
▁응시는	-10170
▁응원해	-10171
▁의사가	-10172
▁의자를	-10173
▁의중을	-10174
▁의지할	-10175
▁이겨내	-10176
▁이겨야	-10177
▁이랬다	-10178
▁이러고	-10179
▁이런게	-10180
▁이뤄질	-10181
▁이별로	-10182
▁이브네	-10183
▁이뻐요	-10184
▁이뻐해	-10185
▁이사가	-10186
▁이상할	-10187
▁이용할	-10188
▁이용해	-10189
▁이전과	-10190
▁이직을	-10191
▁이혼이	-10192
▁익숙해	-10193
▁인내의	-10194
▁인상을	-10195
▁인연을	-10196
▁인정받	-10197
▁인형뽑	-10198
▁일방적	-10199
간당	-10200
감기	-10201
낫네	-10202
다녀	-10203
달할	-10204
당을	-10205
드리	-10206
럴까	-10207
레질	-10208
리두	-10209
시작	-10210
야돼	-10211
였길	-10212
옴을	-10213
을수	-10214
이기	-10215
인은	-10216
잊혀	-10217
키는	-10218
학생	-10219
▁나쁨	-10220
▁날도	-10221
▁다신	-10222
▁두지	-10223
▁뜬금	-10224
▁띄길	-10225
▁몰아	-10226
▁싶대	-10227
▁울면	-10228
▁위안	-10229
▁잔잔	-10230
▁직설	-10231
▁하긴	-10232
환학생	-10233
▁가치와	-10234
▁갔다와	-10235
▁거리두	-10236
▁관리가	-10237
▁꿈처럼	-10238
▁끝나네	-10239
▁내키는	-10240
▁노래들	-10241
▁들지만	-10242
▁뜻으로	-10243
▁목감기	-10244
▁밥이나	-10245
▁수당을	-10246
▁시계줄	-10247
▁쌓였어	-10248
▁알아요	-10249
▁애기가	-10250
▁없었던	-10251
▁연락하	-10252
▁영화나	-10253
▁예감이	-10254
▁오싹한	-10255
▁이사갈	-10256
▁일상을	-10257
▁일시적	-10258
▁일정을	-10259
▁일하시	-10260
▁읽히나	-10261
▁입학식	-10262
▁있대요	-10263
▁잊기는	-10264
▁잊기로	-10265
▁잊어요	-10266
▁자격은	-10267
▁자기를	-10268
▁자꾸만	-10269
▁자르는	-10270
▁자리에	-10271
▁자세가	-10272
▁자유가	-10273
▁자장가	-10274
▁자체는	-10275
▁자체에	-10276
▁작동이	-10277
▁작아져	-10278
▁잘못한	-10279
▁잘하실	-10280
▁잘해주	-10281
▁잡혔어	-10282
▁장갑을	-10283
▁장난친	-10284
▁재밌죠	-10285
▁재테크	-10286
▁쟁여둔	-10287
▁저라도	-10288
▁저와의	-10289
▁적성에	-10290
▁적응을	-10291
▁적응해	-10292
▁전공에	-10293
▁전달할	-10294
▁전생에	-10295
▁전세계	-10296
▁전세비	-10297
▁전해졌	-10298
▁전해질	-10299
▁깼	-10300
▁툭	-10301
▁힌	-10302
나올	-10303
노력	-10304
디오	-10305
라를	-10306
말자	-10307
뱃돈	-10308
빼고	-10309
사빠	-10310
아플	-10311
인배	-10312
찰에	-10313
청약	-10314
해당	-10315
히지	-10316
▁거창	-10317
▁곳과	-10318
▁기뻐	-10319
▁기적	-10320
▁깍고	-10321
▁놀라	-10322
▁로망	-10323
▁복붙	-10324
▁소극	-10325
▁싸면	-10326
▁안열	-10327
▁온수	-10328
▁자금	-10329
▁잘될	-10330
▁찼던	-10331
▁타입	-10332
▁힌트	-10333
소리가	-10334
있는데	-10335
▁경찰에	-10336
▁금사빠	-10337
▁꾸는데	-10338
▁꾸미고	-10339
▁끓이는	-10340
▁나라를	-10341
▁나쁜데	-10342
▁나오는	-10343
▁대인배	-10344
▁디져트	-10345
▁떨려요	-10346
▁떨어요	-10347
▁못자고	-10348
▁문자를	-10349
▁발표는	-10350
▁보여도	-10351
▁비슷한	-10352
▁상태를	-10353
▁상해요	-10354
▁세뱃돈	-10355
▁아까운	-10356
▁연애끝	-10357
▁예뻐해	-10358
▁온수로	-10359
▁인복이	-10360
▁절제가	-10361
▁정동진	-10362
▁정수리	-10363
▁젖었어	-10364
▁제철과	-10365
▁조금의	-10366
▁조명빨	-10367
▁조절은	-10368
▁졸린데	-10369
▁종목을	-10370
▁종아리	-10371
▁종이에	-10372
▁좋아졌	-10373
▁좋았어	-10374
▁주량은	-10375
▁주름도	-10376
▁죽었다	-10377
▁죽인다	-10378
▁준비는	-10379
▁준비해	-10380
▁줄이고	-10381
▁중간이	-10382
▁중간인	-10383
▁중고서	-10384
▁중이래	-10385
▁중인거	-10386
▁쥐꼬리	-10387
▁즐겁죠	-10388
▁즐기면	-10389
▁증거일	-10390
▁증오로	-10391
▁지려고	-10392
▁지식이	-10393
▁지압을	-10394
▁지울까	-10395
▁지워야	-10396
▁지쳤을	-10397
▁지치고	-10398
▁지치면	-10399
같네	-10400
거란	-10401
긴지	-10402
나보	-10403
반에	-10404
식물	-10405
안돼	-10406
어오	-10407
인걸	-10408
인사	-10409
줌마	-10410
쪽이	-10411
하냐	-10412
허식	-10413
▁고작	-10414
▁공급	-10415
▁누나	-10416
▁뒤따	-10417
▁뜻밖	-10418
▁먼데	-10419
▁보드	-10420
▁불륜	-10421
▁수박	-10422
▁이마	-10423
▁지겹	-10424
▁트인	-10425
▁흔한	-10426
식물도	-10427
▁갑시다	-10428
▁구속해	-10429
▁기어오	-10430
▁끊긴지	-10431
▁내리길	-10432
▁녹여서	-10433
▁놀기만	-10434
▁됐나요	-10435
▁뜻밖의	-10436
▁망해도	-10437
▁못해본	-10438
▁쉬었다	-10439
▁싫어할	-10440
▁아줌마	-10441
▁알아주	-10442
▁없었어	-10443
▁온전한	-10444
▁이남자	-10445
▁잠깐씩	-10446
▁정도를	-10447
▁쥬스는	-10448
▁지나야	-10449
▁지치게	-10450
▁지키기	-10451
▁직구로	-10452
▁진도가	-10453
▁진부한	-10454
▁진실로	-10455
▁진전이	-10456
▁진지한	-10457
▁질리게	-10458
▁질리지	-10459
▁질린다	-10460
▁질린대	-10461
▁집밖에	-10462
▁집어서	-10463
▁집주인	-10464
▁짝남의	-10465
▁쪼그만	-10466
▁쪽지를	-10467
▁찔까봐	-10468
▁차가운	-10469
▁차례인	-10470
▁차리래	-10471
▁차별을	-10472
▁차용증	-10473
▁차이일	-10474
▁차인후	-10475
▁차트를	-10476
▁참견해	-10477
▁참다가	-10478
▁창문을	-10479
▁찾아갔	-10480
▁채널을	-10481
▁채우길	-10482
▁책임이	-10483
▁챙길게	-10484
▁천하를	-10485
▁철밥통	-10486
▁첫눈에	-10487
▁청결한	-10488
▁체력에	-10489
▁체육복	-10490
▁체조를	-10491
▁체질이	-10492
▁쳇바퀴	-10493
▁쳐다보	-10494
▁쳐다봄	-10495
▁쳐다봐	-10496
▁총회에	-10497
▁최우선	-10498
▁추억도	-10499
▁값	-10500
가입	-10501
거로	-10502
럽을	-10503
부름	-10504
분씩	-10505
서를	-10506
않은	-10507
어린	-10508
열다	-10509
오늘	-10510
졌다	-10511
타면	-10512
확보	-10513
▁걸지	-10514
▁돌릴	-10515
▁맘같	-10516
▁반이	-10517
▁반항	-10518
▁밤이	-10519
▁비키	-10520
▁비틀	-10521
▁애국	-10522
▁애니	-10523
▁오나	-10524
▁이길	-10525
▁자니	-10526
▁파마	-10527
난데요	-10528
닝할까	-10529
시네요	-10530
좋을까	-10531
컥하네	-10532
했다가	-10533
형적인	-10534
▁15%	-10535
▁가봤어	-10536
▁값이죠	-10537
▁결혼도	-10538
▁나을가	-10539
▁눈사람	-10540
▁늙어가	-10541
▁다음달	-10542
▁등록금	-10543
▁문열다	-10544
▁붙잡을	-10545
▁비키니	-10546
▁순간의	-10547
▁시럽을	-10548
▁식도염	-10549
▁실망을	-10550
▁심부름	-10551
▁아이라	-10552
▁잘가요	-10553
▁재가입	-10554
▁착해서	-10555
▁추워서	-10556
▁추적추	-10557
▁춘곤증	-10558
▁출발을	-10559
▁춥다고	-10560
▁춥지도	-10561
▁충격이	-10562
▁충전기	-10563
▁충전도	-10564
▁취미와	-10565
▁취업에	-10566
▁취직이	-10567
▁취향을	-10568
▁취향이	-10569
▁치우고	-10570
▁친구일	-10571
▁친절한	-10572
▁침대와	-10573
▁침해당	-10574
▁카드가	-10575
▁카드값	-10576
▁카메라	-10577
▁카페에	-10578
▁칼로리	-10579
▁커피도	-10580
▁컸으면	-10581
▁케빈과	-10582
▁케익을	-10583
▁켜세요	-10584
▁코골이	-10585
▁코스를	-10586
▁크겠죠	-10587
▁크기가	-10588
▁크루즈	-10589
▁키우기	-10590
▁타인과	-10591
▁타인의	-10592
▁타임머	-10593
▁탓인지	-10594
▁탔는데	-10595
▁태어날	-10596
▁터질거	-10597
▁턱시도	-10598
▁텀블러	-10599
▁귤	-10600
▁닥	-10601
▁범	-10602
▁홀	-10603
강차	-10604
그인	-10605
달된	-10606
례품	-10607
잘라	-10608
주긴	-10609
차곡	-10610
쳐올	-10611
하구	-10612
▁고파	-10613
▁곱창	-10614
▁기특	-10615
▁낫지	-10616
▁되긴	-10617
▁무죄	-10618
▁범죄	-10619
▁싶고	-10620
▁영역	-10621
▁외부	-10622
▁일로	-10623
▁추울	-10624
▁춥냐	-10625
▁취준	-10626
▁하실	-10627
▁해놨	-10628
▁화났	-10629
▁환경	-10630
곡차곡	-10631
때리는	-10632
소모가	-10633
오겠죠	-10634
▁공개해	-10635
▁기억할	-10636
▁남주긴	-10637
▁늦어요	-10638
▁닥쳐올	-10639
▁답례품	-10640
▁로그인	-10641
▁막히네	-10642
▁매순간	-10643
▁모잘라	-10644
▁받아줄	-10645
▁발달된	-10646
▁보라고	-10647
▁부부가	-10648
▁부었어	-10649
▁빼앗겼	-10650
▁사야돼	-10651
▁생강차	-10652
▁일반인	-10653
▁일부러	-10654
▁정으로	-10655
▁존중된	-10656
▁증거라	-10657
▁철벽치	-10658
▁칼국수	-10659
▁통하는	-10660
▁투자한	-10661
▁특이한	-10662
▁특징은	-10663
▁틀어도	-10664
▁틈틈이	-10665
▁티내면	-10666
▁판단은	-10667
▁팬미팅	-10668
▁퍼가요	-10669
▁편두통	-10670
▁편린일	-10671
▁편지를	-10672
▁편한거	-10673
▁편해진	-10674
▁평가원	-10675
▁평온해	-10676
▁포근포	-10677
▁포기안	-10678
▁포장이	-10679
▁포커페	-10680
▁폭력은	-10681
▁폭식증	-10682
▁표정이	-10683
▁풀려고	-10684
▁풀어요	-10685
▁프리마	-10686
▁프사가	-10687
▁프사랑	-10688
▁프사를	-10689
▁프사에	-10690
▁플라토	-10691
▁피로를	-10692
▁피씨방	-10693
▁피어싱	-10694
▁피우는	-10695
▁피해자	-10696
▁필기구	-10697
▁필수는	-10698
▁필연이	-10699
▁덮	-10700
무슨	-10701
프다	-10702
▁..	-10703
▁계단	-10704
▁귀차	-10705
▁그후	-10706
▁나갈	-10707
▁나감	-10708
▁나길	-10709
▁나름	-10710
▁나에	-10711
▁나옴	-10712
▁따위	-10713
▁마냥	-10714
▁마치	-10715
▁마트	-10716
▁복이	-10717
▁뿐이	-10718
▁사지	-10719
▁사치	-10720
▁살랑	-10721
▁실컷	-10722
▁아른	-10723
▁아재	-10724
▁이른	-10725
▁이발	-10726
▁이자	-10727
▁이후	-10728
▁있니	-10729
▁있으	-10730
▁잘된	-10731
▁젖어	-10732
▁지불	-10733
▁짓만	-10734
▁취해	-10735
랑하는	-10736
섣부르	-10737
언하는	-10738
플하게	-10739
한건지	-10740
▁...	-10741
▁고민은	-10742
▁기침도	-10743
▁꿈이었	-10744
▁도와준	-10745
▁리드를	-10746
▁마치길	-10747
▁먹는게	-10748
▁바람좀	-10749
▁빼니까	-10750
▁사전도	-10751
▁섣부르	-10752
▁시원할	-10753
▁어쩌죠	-10754
▁운명도	-10755
▁일해요	-10756
▁저랬다	-10757
▁진실을	-10758
▁챙겨줘	-10759
▁축하할	-10760
▁태도에	-10761
▁피나는	-10762
▁핑계로	-10763
▁핑계를	-10764
▁하객이	-10765
▁하나만	-10766
▁하나의	-10767
▁하는걸	-10768
▁하늘은	-10769
▁하셔도	-10770
▁하셔야	-10771
▁하시면	-10772
▁학벌이	-10773
▁학생이	-10774
▁학원에	-10775
▁한계에	-10776
▁한눈팔	-10777
▁한때는	-10778
▁한마디	-10779
▁한몸이	-10780
▁한번의	-10781
▁한적한	-10782
▁할지도	-10783
▁해결해	-10784
▁해봐도	-10785
▁해야되	-10786
▁해줬어	-10787
▁핸드백	-10788
▁행실을	-10789
▁행운일	-10790
▁향이죠	-10791
▁향하고	-10792
▁허전함	-10793
▁허전해	-10794
▁헐었어	-10795
▁헬스장	-10796
▁헷갈릴	-10797
▁현금이	-10798
▁형편에	-10799
라구	-10800
쨌든	-10801
피성	-10802
▁가네	-10803
▁가봐	-10804
▁가출	-10805
▁가혹	-10806
▁같죠	-10807
▁구경	-10808
▁날인	-10809
▁남잔	-10810
▁너그	-10811
▁다한	-10812
▁수만	-10813
▁수순	-10814
▁심란	-10815
▁싶을	-10816
▁안날	-10817
▁안올	-10818
▁안이	-10819
▁안정	-10820
▁없음	-10821
▁연금	-10822
▁연기	-10823
▁위를	-10824
▁자게	-10825
▁잘돼	-10826
▁잘맞	-10827
▁찾기	-10828
▁책만	-10829
▁크네	-10830
▁하곤	-10831
▁하길	-10832
▁하트	-10833
▁해봐	-10834
▁해선	-10835
▁휴우	-10836
셨어요	-10837
싶어요	-10838
▁고민돼	-10839
▁골라줘	-10840
▁남잔데	-10841
▁누구를	-10842
▁대학교	-10843
▁도피성	-10844
▁돈보다	-10845
▁득템해	-10846
▁만족해	-10847
▁못하게	-10848
▁무뎌져	-10849
▁뭐부터	-10850
▁사랑자	-10851
▁생각의	-10852
▁액션은	-10853
▁어쨌든	-10854
▁어플은	-10855
▁연애만	-10856
▁일이길	-10857
▁자세요	-10858
▁잔하기	-10859
▁잘돼야	-10860
▁저처럼	-10861
▁죽는게	-10862
▁찾아왔	-10863
▁타세요	-10864
▁한계야	-10865
▁현금만	-10866
▁호박씨	-10867
▁혼내는	-10868
▁홈쇼핑	-10869
▁화가나	-10870
▁화나고	-10871
▁화내게	-10872
▁화내는	-10873
▁화내지	-10874
▁화냈어	-10875
▁화요일	-10876
▁화장을	-10877
▁확신을	-10878
▁환승이	-10879
▁환심을	-10880
▁활기찬	-10881
▁활용에	-10882
▁홧김에	-10883
▁회복되	-10884
▁회사랑	-10885
▁회사를	-10886
▁효과적	-10887
▁휴양지	-10888
▁흐려지	-10889
▁흐르면	-10890
▁흘렀네	-10891
▁흘렸어	-10892
▁힘들때	-10893
▁힘들줄	-10894
▁힘차게	-10895
개월간의	-10896
거같은데	-10897
거리확보	-10898
기사님들	-10899
마시	-10900
풀이	-10901
▁강박	-10902
▁것과	-10903
▁근황	-10904
▁기부	-10905
▁기쁜	-10906
▁기획	-10907
▁날들	-10908
▁내길	-10909
▁내도	-10910
▁내릴	-10911
▁내장	-10912
▁너만	-10913
▁늦기	-10914
▁만보	-10915
▁만져	-10916
▁말려	-10917
▁말지	-10918
▁바본	-10919
▁바이	-10920
▁방탈	-10921
▁보관	-10922
▁보답	-10923
▁보조	-10924
▁보죠	-10925
▁보증	-10926
▁비우	-10927
▁쉬게	-10928
▁시누	-10929
▁시린	-10930
▁시절	-10931
▁쌓아	-10932
▁않다	-10933
▁오니	-10934
▁오후	-10935
▁일까	-10936
▁지기	-10937
▁지상	-10938
가야지	-10939
났는데	-10940
는데도	-10941
는데로	-10942
는데요	-10943
다니기	-10944
라는데	-10945
속으로	-10946
주는데	-10947
지마요	-10948
하게도	-10949
▁가져도	-10950
▁기회일	-10951
▁끝냈어	-10952
▁나아요	-10953
▁나와야	-10954
▁내려놔	-10955
▁내봐요	-10956
▁너무힘	-10957
▁떨기는	-10958
▁뭘해도	-10959
▁방탈출	-10960
▁보증금	-10961
▁설렘을	-10962
▁손길이	-10963
▁싸움이	-10964
▁쓰세요	-10965
▁알아줄	-10966
▁예의는	-10967
▁오는데	-10968
▁우리를	-10969
▁일어난	-10970
▁저기압	-10971
▁중간을	-10972
▁찾아서	-10973
▁표현할	-10974
▁화풀이	-10975
끄러워서	-10976
나보군요	-10977
내보세요	-10978
년이라는	-10979
다리타기	-10980
당이에요	-10981
데이트가	-10982
동육아가	-10983
드리세요	-10984
랐나봐요	-10985
려나봐요	-10986
린다는게	-10987
만이라도	-10988
머코드가	-10989
방향인지	-10990
버리시길	-10991
비스센터	-10992
산이에요	-10993
상이라고	-10994
수있어요	-10995
스러우면	-10996
야할지도	-10997
어야겠다	-10998
었는가를	-10999
덜덜	-11000
보지	-11001
▁고비	-11002
▁고시	-11003
▁과함	-11004
▁그놈	-11005
▁깨질	-11006
▁되요	-11007
▁모공	-11008
▁모음	-11009
▁모질	-11010
▁버린	-11011
▁살릴	-11012
▁상견	-11013
▁썸임	-11014
▁않나	-11015
▁일하	-11016
▁저렴	-11017
▁정글	-11018
▁정들	-11019
▁정색	-11020
▁한고	-11021
▁한자	-11022
▁한지	-11023
▁헤헤	-11024
깅하고	-11025
례하지	-11026
법이랑	-11027
웠으면	-11028
하지가	-11029
▁결단은	-11030
▁끝나길	-11031
▁날이네	-11032
▁떨어진	-11033
▁만큼만	-11034
▁말자고	-11035
▁맞겠지	-11036
▁사랑꾼	-11037
▁상견례	-11038
▁설레면	-11039
▁시간적	-11040
▁아세요	-11041
▁얼었어	-11042
▁여자들	-11043
▁여자야	-11044
▁여자에	-11045
▁연락올	-11046
▁우리의	-11047
▁운명의	-11048
▁이별과	-11049
▁일하고	-11050
▁일하든	-11051
▁전부인	-11052
▁좋은건	-11053
▁좋은점	-11054
▁집에만	-11055
▁찾아야	-11056
▁헤어졋	-11057
▁현명한	-11058
▁현실에	-11059
▁후덜덜	-11060
▁휴식에	-11061
▁힘들것	-11062
여행이죠	-11063
우스에서	-11064
이겠네요	-11065
이너에게	-11066
이어야죠	-11067
이었나봐	-11068
인노래방	-11069
일꺼에요	-11070
전순결이	-11071
주나봐요	-11072
주시다니	-11073
지우겠네	-11074
추위래요	-11075
출해볼까	-11076
커플인데	-11077
코스터를	-11078
평가되어	-11079
포인트가	-11080
하다면요	-11081
하려니까	-11082
하셨네요	-11083
하지만은	-11084
해야겠죠	-11085
해야할듯	-11086
했어야죠	-11087
했었는데	-11088
▁가게부를	-11089
▁가게에서	-11090
▁가능성을	-11091
▁가능한지	-11092
▁가니까요	-11093
▁가봅시다	-11094
▁가시밭길	-11095
▁가야겠다	-11096
▁가야겠지	-11097
▁가져오면	-11098
▁가족같은	-11099
▁빡	-11100
들만	-11101
을거	-11102
찬하	-11103
~~~	-11104
▁건네	-11105
▁결재	-11106
▁급해	-11107
▁답인	-11108
▁당구	-11109
▁당함	-11110
▁대만	-11111
▁대빵	-11112
▁대신	-11113
▁듣니	-11114
▁맘도	-11115
▁먹게	-11116
▁먹다	-11117
▁먹든	-11118
▁먹방	-11119
▁먹죠	-11120
▁못가	-11121
▁못내	-11122
▁못받	-11123
▁무난	-11124
▁무료	-11125
▁무사	-11126
▁부네	-11127
▁부르	-11128
▁부산	-11129
▁빡빡	-11130
▁살았	-11131
▁선연	-11132
▁이를	-11133
▁저요	-11134
▁저의	-11135
▁저축	-11136
▁정치	-11137
▁조교	-11138
▁주눅	-11139
▁주절	-11140
▁주체	-11141
▁찌는	-11142
▁차면	-11143
▁컴터	-11144
▁티나	-11145
▁험해	-11146
곳에서	-11147
에서는	-11148
▁거부의	-11149
▁고백도	-11150
▁귀찬하	-11151
▁기대돼	-11152
▁나가고	-11153
▁당하고	-11154
▁당해요	-11155
▁대하면	-11156
▁맛을거	-11157
▁먹어요	-11158
▁미치네	-11159
▁바지가	-11160
▁받아요	-11161
▁배에서	-11162
▁사정을	-11163
▁상대의	-11164
▁식으로	-11165
▁실수한	-11166
▁이치죠	-11167
▁전하면	-11168
▁정해서	-11169
▁짧으면	-11170
▁친구야	-11171
▁혼났어	-11172
▁힘들긴	-11173
▁가족관계	-11174
▁가족끼리	-11175
▁간단하고	-11176
▁간절하네	-11177
▁감사해요	-11178
▁감정기복	-11179
▁감정들을	-11180
▁감출길이	-11181
▁강렬하고	-11182
▁강제종료	-11183
▁같은데도	-11184
▁개강이다	-11185
▁거였구나	-11186
▁거짓말일	-11187
▁거창하지	-11188
▁건강검진	-11189
▁건조하네	-11190
▁걸릴지도	-11191
▁걸어다니	-11192
▁것이라면	-11193
▁게스트하	-11194
▁견과류나	-11195
▁결정이길	-11196
▁결정적인	-11197
▁결정했어	-11198
▁결혼생활	-11199
심리	-11200
▁감미	-11201
▁감이	-11202
▁감추	-11203
▁걸렸	-11204
▁걸음	-11205
▁견딜	-11206
▁노답	-11207
▁돌싱	-11208
▁드론	-11209
▁들켰	-11210
▁붙어	-11211
▁비비	-11212
▁비추	-11213
▁소모	-11214
▁우는	-11215
▁이쁘	-11216
▁제길	-11217
▁취할	-11218
▁할때	-11219
▁할일	-11220
날텐데	-11221
▁겠네요	-11222
▁괜찮았	-11223
▁그분을	-11224
▁드네요	-11225
▁드시지	-11226
▁들겠지	-11227
▁맛집을	-11228
▁모르니	-11229
▁모르죠	-11230
▁못난거	-11231
▁불만이	-11232
▁세상의	-11233
▁수상해	-11234
▁아니긴	-11235
▁안오면	-11236
▁안주랑	-11237
▁연애해	-11238
▁이길이	-11239
▁이라고	-11240
▁짝남을	-11241
▁편해도	-11242
▁필요하	-11243
▁회복할	-11244
나쁜건지	-11245
났습니다	-11246
됐습니다	-11247
려합니다	-11248
여친이랑	-11249
▁가장해서	-11250
▁결혼했어	-11251
▁경우예요	-11252
▁경쟁해야	-11253
▁경조사는	-11254
▁계속되는	-11255
▁계약했어	-11256
▁계절이죠	-11257
▁계획대로	-11258
▁고기어도	-11259
▁고르세요	-11260
▁고민이네	-11261
▁고민인지	-11262
▁고백한다	-11263
▁고백할걸	-11264
▁고백할까	-11265
▁고치려고	-11266
▁고통받고	-11267
▁골랐나봐	-11268
▁공간으로	-11269
▁공감해주	-11270
▁공기정화	-11271
▁공복이라	-11272
▁공부하길	-11273
▁공채때는	-11274
▁공통점을	-11275
▁공허하네	-11276
▁공황장애	-11277
▁관찰하고	-11278
▁괜찮다고	-11279
▁괜찮대요	-11280
▁괜찮아도	-11281
▁괴롭히는	-11282
▁교직이수	-11283
▁교통사고	-11284
▁교환학생	-11285
▁구꺼비집	-11286
▁구매하면	-11287
▁권유하고	-11288
▁귀여워요	-11289
▁귀엽다고	-11290
▁귀찮아서	-11291
▁귀찮은데	-11292
▁그나저나	-11293
▁그대로를	-11294
▁그래봤자	-11295
▁그러다가	-11296
▁그러든지	-11297
▁그런거지	-11298
▁그럴때는	-11299
문서	-11300
통약	-11301
호팬	-11302
▁공연	-11303
▁공원	-11304
▁날까	-11305
▁날은	-11306
▁눈빛	-11307
▁맞길	-11308
▁맺는	-11309
▁물론	-11310
▁방심	-11311
▁방에	-11312
▁배웠	-11313
▁뽀뽀	-11314
▁서글	-11315
▁서먹	-11316
▁서지	-11317
▁속는	-11318
▁신입	-11319
▁싫대	-11320
▁애써	-11321
▁애야	-11322
▁예를	-11323
▁우정	-11324
▁으악	-11325
▁잠도	-11326
▁잠은	-11327
▁차도	-11328
▁차차	-11329
▁천일	-11330
▁취급	-11331
▁친해	-11332
▁타게	-11333
▁한살	-11334
간다고	-11335
하대요	-11336
▁걱정일	-11337
▁건들이	-11338
▁결혼한	-11339
▁군대를	-11340
▁남겠죠	-11341
▁내려올	-11342
▁누나가	-11343
▁당신과	-11344
▁도예요	-11345
▁돌아섰	-11346
▁동문서	-11347
▁두통약	-11348
▁맞다고	-11349
▁배웠길	-11350
▁술이야	-11351
▁숨기는	-11352
▁쉬운데	-11353
▁싫으면	-11354
▁싶은거	-11355
▁않겠죠	-11356
▁어떻해	-11357
▁여자의	-11358
▁우리반	-11359
▁의미는	-11360
▁잊겠어	-11361
▁전인데	-11362
▁정리는	-11363
▁정리도	-11364
▁주고도	-11365
▁지금이	-11366
▁차라도	-11367
▁치매가	-11368
▁폰게임	-11369
▁혼자있	-11370
▁후회돼	-11371
▁공부해야	-11372
▁그런건지	-11373
▁그럼에도	-11374
▁그렇겠지	-11375
▁그리워서	-11376
▁그립지만	-11377
▁그만두고	-11378
▁그만둬서	-11379
▁그만할래	-11380
▁그사람도	-11381
▁기념일에	-11382
▁기니까요	-11383
▁기다렸어	-11384
▁기분나쁘	-11385
▁기분이야	-11386
▁기쁨이죠	-11387
▁기술이죠	-11388
▁기억으로	-11389
▁기억하고	-11390
▁기우제를	-11391
▁기울이지	-11392
▁기원해요	-11393
▁기적이죠	-11394
▁긴장하지	-11395
▁길거리에	-11396
▁길어진다	-11397
▁깔끔하게	-11398
▁깔끔한게	-11399
벅스	-11400
보단	-11401
▁과에	-11402
▁굴면	-11403
▁놀려	-11404
▁달래	-11405
▁달리	-11406
▁달에	-11407
▁따듯	-11408
▁문콕	-11409
▁볼링	-11410
▁삼재	-11411
▁새가	-11412
▁새는	-11413
▁세포	-11414
▁수고	-11415
▁쉬울	-11416
▁쉬워	-11417
▁심장	-11418
▁얼어	-11419
▁위층	-11420
▁착할	-11421
▁참외	-11422
▁취뽀	-11423
▁편을	-11424
▁편히	-11425
걸지도	-11426
끝이네	-11427
달만에	-11428
렇게나	-11429
보이는	-11430
하나요	-11431
▁같이도	-11432
▁고민과	-11433
▁고민만	-11434
▁남보다	-11435
▁능력만	-11436
▁대하고	-11437
▁말보다	-11438
▁먹여주	-11439
▁보험료	-11440
▁사이라	-11441
▁산이네	-11442
▁소식에	-11443
▁속상할	-11444
▁알지만	-11445
▁오늘밤	-11446
▁잘라요	-11447
▁조금은	-11448
▁조취를	-11449
▁준비한	-11450
▁중요해	-11451
▁편인데	-11452
▁편지도	-11453
▁편해요	-11454
▁평소의	-11455
▁피하지	-11456
▁한사람	-11457
▁행복의	-11458
▁힘든가	-11459
▁고민하는	-11460
▁공무원이	-11461
▁그렇기도	-11462
▁깜빡거려	-11463
▁깨졌는데	-11464
▁꼬였는지	-11465
▁꾸준한게	-11466
▁꿈같았던	-11467
▁끊겼는데	-11468
▁끊었으면	-11469
▁끊으라고	-11470
▁끝났는데	-11471
▁끝내는게	-11472
▁끝내시길	-11473
▁끝냈는데	-11474
▁끝이났네	-11475
▁끝이라고	-11476
▁끝인가봐	-11477
▁나가기가	-11478
▁나가야지	-11479
▁나눠봐요	-11480
▁나빴네요	-11481
▁나아지지	-11482
▁나오기도	-11483
▁나온다니	-11484
▁나온대요	-11485
▁나이테죠	-11486
▁나타나면	-11487
▁나타나죠	-11488
▁낙담하지	-11489
▁난방비가	-11490
▁난방으로	-11491
▁날거예요	-11492
▁날인지는	-11493
▁날카로워	-11494
▁남나봐요	-11495
▁남은걸까	-11496
▁남이라는	-11497
▁남자들이	-11498
▁남자와의	-11499
▁꿈도	-11500
▁놀지	-11501
▁답변	-11502
▁동상	-11503
▁동의	-11504
▁떠서	-11505
▁법적	-11506
▁변기	-11507
▁불쌍	-11508
▁빌렸	-11509
▁식상	-11510
▁심각	-11511
▁심정	-11512
▁앞이	-11513
▁티끌	-11514
▁하냐	-11515
▁화살	-11516
것인가	-11517
급이야	-11518
때까지	-11519
렸을까	-11520
사람을	-11521
지러워	-11522
챘을까	-11523
해서도	-11524
▁가볼까	-11525
▁그것은	-11526
▁깨어진	-11527
▁날까지	-11528
▁날인가	-11529
▁남이죠	-11530
▁달라져	-11531
▁달에는	-11532
▁됐다고	-11533
▁들어야	-11534
▁먼저일	-11535
▁변하면	-11536
▁사귀게	-11537
▁상관이	-11538
▁수백번	-11539
▁시작도	-11540
▁시작함	-11541
▁야구장	-11542
▁유기견	-11543
▁장소에	-11544
▁저금통	-11545
▁조건이	-11546
▁중이야	-11547
▁짝녀의	-11548
▁통화를	-11549
▁풀렸죠	-11550
▁학기를	-11551
▁힘들만	-11552
적이어도	-11553
해야해요	-11554
▁결혼에는	-11555
▁계속해도	-11556
▁고마워할	-11557
▁그곳에서	-11558
▁남자인데	-11559
▁남편한테	-11560
▁낫겠네요	-11561
▁났나봐요	-11562
▁내려놓는	-11563
▁내일이면	-11564
▁냉동실에	-11565
▁넣으세요	-11566
▁노력하지	-11567
▁노트북은	-11568
▁녹음이나	-11569
▁놀러갈까	-11570
▁농구하다	-11571
▁농담처럼	-11572
▁뇌세포에	-11573
▁누구와도	-11574
▁누락됐어	-11575
▁눈꺼풀의	-11576
▁느껴보고	-11577
▁느껴질때	-11578
▁느끼는게	-11579
▁느낌이길	-11580
▁늘거예요	-11581
▁늙어가고	-11582
▁능력이긴	-11583
▁다가가고	-11584
▁다가가면	-11585
▁다가옴을	-11586
▁다그치지	-11587
▁다녀와요	-11588
▁다니거나	-11589
▁다니면서	-11590
▁다니세요	-11591
▁다르지만	-11592
▁다정한게	-11593
▁다크서클	-11594
▁다했다면	-11595
▁단둘이는	-11596
▁단짠으로	-11597
▁닫으세요	-11598
▁달라질까	-11599
▁O	-11600
기다	-11601
던게	-11602
▁14	-11603
▁간에	-11604
▁나로	-11605
▁떨면	-11606
▁마디	-11607
▁머물	-11608
▁볼매	-11609
▁분다	-11610
▁세금	-11611
▁세죠	-11612
▁숨한	-11613
▁싸서	-11614
▁왔나	-11615
▁줄에	-11616
▁짰어	-11617
▁최소	-11618
보는건	-11619
시니까	-11620
주려고	-11621
해줘요	-11622
▁가보는	-11623
▁감정컨	-11624
▁공부에	-11625
▁공부한	-11626
▁기대로	-11627
▁기분을	-11628
▁꾸준한	-11629
▁나대로	-11630
▁놀리는	-11631
▁되기가	-11632
▁되나요	-11633
▁떨리는	-11634
▁떨면서	-11635
▁만들까	-11636
▁말씀해	-11637
▁매세요	-11638
▁머릿결	-11639
▁모기가	-11640
▁믿는데	-11641
▁바다는	-11642
▁바보는	-11643
▁방들이	-11644
▁사이도	-11645
▁사이트	-11646
▁세다고	-11647
▁쉬려고	-11648
▁슬픔에	-11649
▁쓰자고	-11650
▁아닌건	-11651
▁안아서	-11652
▁않은데	-11653
▁알았다	-11654
▁연애할	-11655
▁이뻐서	-11656
▁일이랑	-11657
▁있지는	-11658
▁존댓말	-11659
▁좋거나	-11660
▁줄이야	-11661
▁차리는	-11662
▁하니까	-11663
▁한번에	-11664
▁현관문	-11665
▁힘드시	-11666
개월동안	-11667
▁감정들이	-11668
▁남았다면	-11669
▁답답하고	-11670
▁당황해서	-11671
▁대답할지	-11672
▁대우하는	-11673
▁대청소를	-11674
▁데이트에	-11675
▁데이트요	-11676
▁도망가고	-11677
▁도서관도	-11678
▁도와주세	-11679
▁도와줄까	-11680
▁독특함을	-11681
▁돌아가서	-11682
▁돌아보면	-11683
▁돌아서지	-11684
▁돌아오기	-11685
▁동거하고	-11686
▁동거하다	-11687
▁동거해도	-11688
▁동생으로	-11689
▁동심으로	-11690
▁되가는데	-11691
▁되었네요	-11692
▁되었는데	-11693
▁된답니다	-11694
▁두근거려	-11695
▁두셨군요	-11696
▁뒤처지는	-11697
▁뒷감당은	-11698
▁뒷모습만	-11699
▁구질	-11700
▁드러	-11701
▁맘은	-11702
▁발레	-11703
▁발을	-11704
▁소풍	-11705
▁속을	-11706
▁외박	-11707
▁원두	-11708
▁입맛	-11709
▁입소	-11710
▁잘가	-11711
▁장사	-11712
▁장수	-11713
▁장애	-11714
▁장이	-11715
▁청약	-11716
▁축가	-11717
▁커요	-11718
▁학과	-11719
▁학식	-11720
▁학회	-11721
부터의	-11722
이크업	-11723
▁감기일	-11724
▁건강은	-11725
▁것부터	-11726
▁공적인	-11727
▁깨지고	-11728
▁대화도	-11729
▁떠나요	-11730
▁맘대로	-11731
▁맛있고	-11732
▁맛있죠	-11733
▁멋있게	-11734
▁빨리감	-11735
▁생겼대	-11736
▁소액이	-11737
▁소원이	-11738
▁쉽지는	-11739
▁싫어해	-11740
▁써놓고	-11741
▁썸부터	-11742
▁안되면	-11743
▁어디다	-11744
▁어떨때	-11745
▁언제가	-11746
▁왜그래	-11747
▁이용당	-11748
▁좋다가	-11749
▁중독인	-11750
▁지우는	-11751
▁집착일	-11752
▁찍었어	-11753
▁충분할	-11754
▁충전할	-11755
▁취하기	-11756
▁편하죠	-11757
▁피곤할	-11758
▁했나요	-11759
보고싶어	-11760
▁가라앉혀	-11761
▁격려하고	-11762
▁괜찮다가	-11763
▁구하세요	-11764
▁글자라도	-11765
▁기울이는	-11766
▁남자인지	-11767
▁다가왔어	-11768
▁대단해요	-11769
▁데이트로	-11770
▁뒹굴뒹글	-11771
▁드레스룸	-11772
▁드릴까요	-11773
▁드시는거	-11774
▁드시라고	-11775
▁득템했길	-11776
▁든든하게	-11777
▁듣고싶어	-11778
▁들어가요	-11779
▁들어와서	-11780
▁들었는데	-11781
▁들었어요	-11782
▁들으세요	-11783
▁들텐데요	-11784
▁등산해요	-11785
▁디저트는	-11786
▁따라하게	-11787
▁따야하나	-11788
▁때문이죠	-11789
▁때입니다	-11790
▁떠나갔어	-11791
▁떠나보내	-11792
▁떠나세요	-11793
▁떠날까봐	-11794
▁떠오르네	-11795
▁떨리네요	-11796
▁떨리더라	-11797
▁떨어지지	-11798
▁뛰어넘는	-11799
겟어	-11800
▁과제	-11801
▁길에	-11802
▁깨는	-11803
▁깨서	-11804
▁놓침	-11805
▁단발	-11806
▁단수	-11807
▁단지	-11808
▁듣지	-11809
▁듯이	-11810
▁복합	-11811
▁슬슬	-11812
▁쓰디	-11813
▁약초	-11814
▁약해	-11815
▁요가	-11816
▁자야	-11817
▁처량	-11818
▁처방	-11819
▁추세	-11820
▁치킨	-11821
▁펴고	-11822
▁호구	-11823
▁호수	-11824
거리가	-11825
심하네	-11826
안했던	-11827
찹하네	-11828
▁가는거	-11829
▁같기도	-11830
▁과해도	-11831
▁넘었어	-11832
▁누구니	-11833
▁돌아간	-11834
▁돌아온	-11835
▁많아도	-11836
▁못하네	-11837
▁미련없	-11838
▁벌레를	-11839
▁부담돼	-11840
▁부담을	-11841
▁부담이	-11842
▁부딪혀	-11843
▁비참한	-11844
▁사진에	-11845
▁신뢰가	-11846
▁싸세요	-11847
▁아프면	-11848
▁아프죠	-11849
▁어디를	-11850
▁오래걸	-11851
▁자라도	-11852
▁전화할	-11853
▁진리죠	-11854
▁출근길	-11855
▁통해서	-11856
▁편하네	-11857
으로부터	-11858
이신가요	-11859
▁결정이죠	-11860
▁돌아보는	-11861
▁따라오게	-11862
▁뛰어넘을	-11863
▁뜨끈하게	-11864
▁뜻하기도	-11865
▁라디오를	-11866
▁라면봉지	-11867
▁로맨스는	-11868
▁롱디인데	-11869
▁마무리가	-11870
▁마스크팩	-11871
▁마시라고	-11872
▁마시세요	-11873
▁마음가짐	-11874
▁마음만은	-11875
▁마음이죠	-11876
▁마주쳤어	-11877
▁마찬가지	-11878
▁마침표가	-11879
▁막장으로	-11880
▁막히더라	-11881
▁만나는거	-11882
▁만나면서	-11883
▁만나보고	-11884
▁만나보는	-11885
▁만나야죠	-11886
▁만나지말	-11887
▁만드니까	-11888
▁만드세요	-11889
▁만족하는	-11890
▁만족하면	-11891
▁많겠네요	-11892
▁많겠어요	-11893
▁많나봐요	-11894
▁많아지는	-11895
▁말보다는	-11896
▁말아야지	-11897
▁말이라도	-11898
▁말인가요	-11899
▁규	-11900
▁꿩	-11901
폭력	-11902
▁갈구	-11903
▁경과	-11904
▁네가	-11905
▁더디	-11906
▁막고	-11907
▁막상	-11908
▁멋을	-11909
▁발급	-11910
▁번은	-11911
▁번의	-11912
▁손님	-11913
▁순진	-11914
▁시청	-11915
▁안내	-11916
▁와라	-11917
▁잡담	-11918
▁잡을	-11919
▁잡혀	-11920
▁죽지	-11921
▁챙기	-11922
▁초초	-11923
▁친추	-11924
▁피지	-11925
답이나	-11926
재주가	-11927
▁걸어도	-11928
▁그리웠	-11929
▁꽃으로	-11930
▁나가요	-11931
▁남친과	-11932
▁내거나	-11933
▁노력이	-11934
▁다가온	-11935
▁다녀와	-11936
▁더디게	-11937
▁되는줄	-11938
▁보내실	-11939
▁썼는데	-11940
▁아파서	-11941
▁아파할	-11942
▁않았기	-11943
▁앞이나	-11944
▁없거나	-11945
▁예민함	-11946
▁오나봐	-11947
▁인연인	-11948
▁일기를	-11949
▁재미로	-11950
▁조심할	-11951
▁표현에	-11952
▁프사로	-11953
해주면서	-11954
해주지는	-11955
▁각질제거	-11956
▁같은데요	-11957
▁걸으세요	-11958
▁고민이나	-11959
▁나으세요	-11960
▁놀았는데	-11961
▁되는건지	-11962
▁마음에도	-11963
▁마음처럼	-11964
▁말해주죠	-11965
▁말했으면	-11966
▁맘같으면	-11967
▁맘에서도	-11968
▁맛있는거	-11969
▁맛있을거	-11970
▁망설여지	-11971
▁망하는건	-11972
▁맞장구쳐	-11973
▁맞추려고	-11974
▁맞춤법을	-11975
▁맞춰가는	-11976
▁매력있는	-11977
▁매정하게	-11978
▁맨날맨날	-11979
▁머리에서	-11980
▁머릿속에	-11981
▁먹고네요	-11982
▁먹었어도	-11983
▁먹으니까	-11984
▁먹으려고	-11985
▁먹을수록	-11986
▁멀었네요	-11987
▁멀었어요	-11988
▁멋있는거	-11989
▁멍때리는	-11990
▁메뉴얼이	-11991
▁명절에는	-11992
▁명확하게	-11993
▁모르겠음	-11994
▁모르겠지	-11995
▁모르는걸	-11996
▁모르니까	-11997
▁모아봐요	-11998
▁모으시는	-11999
랭이	-12000
마음	-12001
싶지	-12002
▁가죠	-12003
▁개째	-12004
▁금값	-12005
▁난처	-12006
▁다운	-12007
▁멀미	-12008
▁몸도	-12009
▁몸은	-12010
▁봐야	-12011
▁붙는	-12012
▁붙여	-12013
▁빠진	-12014
▁손목	-12015
▁손을	-12016
▁손이	-12017
▁숨길	-12018
▁싫네	-12019
▁자길	-12020
▁졌어	-12021
▁크는	-12022
▁태몽	-12023
▁파토	-12024
버려서	-12025
스럽다	-12026
▁기대도	-12027
▁기대에	-12028
▁나이를	-12029
▁노래로	-12030
▁노래요	-12031
▁뉴스는	-12032
▁되지요	-12033
▁말랭이	-12034
▁보낼까	-12035
▁비싼데	-12036
▁살기가	-12037
▁쓰이네	-12038
▁안해서	-12039
▁앞서서	-12040
▁영화는	-12041
▁오는지	-12042
▁이끌어	-12043
▁인사를	-12044
▁잊어볼	-12045
▁처음만	-12046
▁처음은	-12047
▁추억만	-12048
▁추억을	-12049
▁친하게	-12050
▁커지는	-12051
▁현실은	-12052
▁화장은	-12053
▁힘내려	-12054
▁힘드신	-12055
스타일이	-12056
▁결혼하는	-12057
▁고비예요	-12058
▁관심있나	-12059
▁궁금할만	-12060
▁기념일을	-12061
▁기대하게	-12062
▁다했는데	-12063
▁당신이요	-12064
▁많아졌어	-12065
▁말하면서	-12066
▁모임에서	-12067
▁모자라요	-12068
▁모자라지	-12069
▁목도리는	-12070
▁목소리는	-12071
▁몫이에요	-12072
▁몫입니다	-12073
▁몰라줘도	-12074
▁몰랐네요	-12075
▁몰려가는	-12076
▁몸짓으로	-12077
▁못잊는거	-12078
▁못하냐구	-12079
▁못하시는	-12080
▁무관심이	-12081
▁무궁무진	-12082
▁무기력증	-12083
▁무기력해	-12084
▁무뚝뚝해	-12085
▁무리일까	-12086
▁무리하면	-12087
▁무리하지	-12088
▁무서운건	-12089
▁무서워서	-12090
▁무시하지	-12091
▁무엇보다	-12092
▁무엇인지	-12093
▁문화센터	-12094
▁묻어두는	-12095
▁물론이죠	-12096
▁물리치료	-12097
▁물어보지	-12098
▁물이라도	-12099
▁AB	-12100
▁긴여	-12101
▁꾸고	-12102
▁빨라	-12103
▁식초	-12104
▁실비	-12105
▁써서	-12106
▁온천	-12107
▁울어	-12108
▁작게	-12109
▁제로	-12110
▁졸게	-12111
▁착용	-12112
▁청강	-12113
▁초과	-12114
▁초조	-12115
▁파급	-12116
▁폰이	-12117
▁풀려	-12118
됐는데	-12119
보이네	-12120
▁가슴을	-12121
▁것같아	-12122
▁귀찮네	-12123
▁끝이네	-12124
▁나가도	-12125
▁나가서	-12126
▁남았어	-12127
▁다치지	-12128
▁답일까	-12129
▁된다는	-12130
▁먹어서	-12131
▁모여요	-12132
▁무리가	-12133
▁바람난	-12134
▁배우실	-12135
▁손맛이	-12136
▁수없이	-12137
▁순간은	-12138
▁순간을	-12139
▁어제가	-12140
▁없다가	-12141
▁온다면	-12142
▁울었어	-12143
▁읽는다	-12144
▁자연의	-12145
▁잘살고	-12146
▁재밌대	-12147
▁재회후	-12148
▁커피를	-12149
▁커피에	-12150
▁티나요	-12151
▁해보면	-12152
개월이네	-12153
수있을까	-12154
▁거라는데	-12155
▁관계에서	-12156
▁귀찮으면	-12157
▁기다리다	-12158
▁나오는데	-12159
▁덤덤하게	-12160
▁동물이죠	-12161
▁되었나요	-12162
▁되었으면	-12163
▁떠나갔네	-12164
▁많았으면	-12165
▁먹어보고	-12166
▁뭐였더라	-12167
▁뭐하면서	-12168
▁미련없는	-12169
▁미리미리	-12170
▁미스트나	-12171
▁미워하는	-12172
▁미워한다	-12173
▁미워해도	-12174
▁미치겠다	-12175
▁미팅한다	-12176
▁밑거름이	-12177
▁바랄세요	-12178
▁바람난거	-12179
▁바람이나	-12180
▁바람인지	-12181
▁바르세요	-12182
▁바보같은	-12183
▁바쁘네요	-12184
▁반대예요	-12185
▁반복될까	-12186
▁반복하지	-12187
▁반이에요	-12188
▁반하는게	-12189
▁반항했어	-12190
▁받아드리	-12191
▁받아줄까	-12192
▁받았는데	-12193
▁받으시는	-12194
▁발바니다	-12195
▁발전시켜	-12196
▁발전적인	-12197
▁발전하면	-12198
▁발표할때	-12199
▁40	-12200
▁가며	-12201
▁강림	-12202
▁갖는	-12203
▁꽃을	-12204
▁달째	-12205
▁둘을	-12206
▁못된	-12207
▁본다	-12208
▁봄에	-12209
▁아휴	-12210
▁욕먹	-12211
▁욕은	-12212
▁욕함	-12213
▁잘래	-12214
▁팔뚝	-12215
▁폭풍	-12216
▁한복	-12217
▁흐를	-12218
버려요	-12219
일째네	-12220
▁그런게	-12221
▁꿈같은	-12222
▁나쁘게	-12223
▁나오지	-12224
▁날씨에	-12225
▁났는지	-12226
▁내려요	-12227
▁더없이	-12228
▁떠나지	-12229
▁떠세요	-12230
▁마시며	-12231
▁많다고	-12232
▁멀리서	-12233
▁몇일째	-12234
▁모두가	-12235
▁무서움	-12236
▁벌수록	-12237
▁쉬운게	-12238
▁실력이	-12239
▁아픈데	-12240
▁얼굴만	-12241
▁엄마께	-12242
▁엄청나	-12243
▁욕하는	-12244
▁욕했어	-12245
▁인정은	-12246
▁있다니	-12247
▁정도면	-12248
▁짧아요	-12249
▁처리할	-12250
버려야지	-12251
일째인데	-12252
▁개인적인	-12253
▁검색해서	-12254
▁끊으세요	-12255
▁날이예요	-12256
▁남편이랑	-12257
▁떠난다는	-12258
▁바보라고	-12259
▁밝혀지기	-12260
▁밥심으로	-12261
▁밥이예요	-12262
▁방법이란	-12263
▁방학이래	-12264
▁배고프지	-12265
▁배려하고	-12266
▁배려해줄	-12267
▁배우자와	-12268
▁배움에는	-12269
▁배터리가	-12270
▁백업해놓	-12271
▁버리겠어	-12272
▁버스에서	-12273
▁범죄에요	-12274
▁법이에요	-12275
▁벗어나고	-12276
▁벗었는데	-12277
▁벗으니까	-12278
▁벚꽃구경	-12279
▁베터리만	-12280
▁베트남어	-12281
▁변신하고	-12282
▁변화이길	-12283
▁별로라면	-12284
▁별로인가	-12285
▁별이에요	-12286
▁보고싶을	-12287
▁보내기로	-12288
▁보내줘야	-12289
▁보란듯이	-12290
▁보였으면	-12291
▁보이는데	-12292
▁보이세요	-12293
▁보일러를	-12294
▁보자는데	-12295
▁보장해요	-12296
▁복붙으로	-12297
▁복스럽게	-12298
▁복이와요	-12299
했대	-12300
▁깊이	-12301
▁담담	-12302
▁담은	-12303
▁메인	-12304
▁명만	-12305
▁명언	-12306
▁소홀	-12307
▁책보	-12308
▁출발	-12309
한다는	-12310
▁것이요	-12311
▁겠지요	-12312
▁과거는	-12313
▁과식은	-12314
▁관리를	-12315
▁괴로운	-12316
▁그분과	-12317
▁끝나서	-12318
▁놀러가	-12319
▁눈에도	-12320
▁다같이	-12321
▁도전을	-12322
▁마련의	-12323
▁먹고는	-12324
▁몇시간	-12325
▁보여서	-12326
▁설레게	-12327
▁설레발	-12328
▁설레지	-12329
▁세탁소	-12330
▁속으로	-12331
▁솔직히	-12332
▁아이는	-12333
▁아이를	-12334
▁얘기가	-12335
▁어장을	-12336
▁오랜만	-12337
▁운명을	-12338
▁이시간	-12339
▁잠기는	-12340
▁잤더니	-12341
▁지켜만	-12342
▁직장과	-12343
▁직장이	-12344
▁태도가	-12345
▁학교갈	-12346
▁행동을	-12347
▁가족에게	-12348
▁건강에도	-12349
▁걷다보면	-12350
▁것이겠죠	-12351
▁고치면서	-12352
▁극복하고	-12353
▁극복하는	-12354
▁기억들이	-12355
▁다가가기	-12356
▁마주하는	-12357
▁배우는게	-12358
▁복전하면	-12359
▁봄인가봐	-12360
▁봐달라고	-12361
▁봐야겠다	-12362
▁봐야하나	-12363
▁봐주니까	-12364
▁봤나봐요	-12365
▁부담감을	-12366
▁부담되지	-12367
▁부담스러	-12368
▁부메랑이	-12369
▁부모님과	-12370
▁부여하지	-12371
▁부자되실	-12372
▁부족한지	-12373
▁부질없는	-12374
▁부추기면	-12375
▁분에게도	-12376
▁분위기도	-12377
▁분이네요	-12378
▁불과하죠	-12379
▁불금이네	-12380
▁불러줬어	-12381
▁불편함을	-12382
▁붙이세요	-12383
▁블록들이	-12384
▁블루투스	-12385
▁비슷한거	-12386
▁비싸지만	-12387
▁비오는데	-12388
▁비왔으면	-12389
▁빌어먹을	-12390
▁빠졌군요	-12391
▁빠질까봐	-12392
▁뽑지말고	-12393
▁뿐이예요	-12394
▁사겼는데	-12395
▁사귀기로	-12396
▁사귀어서	-12397
▁사나봐요	-12398
▁사는데요	-12399
▁사드리고	-12400
▁사라질까	-12401
▁사람들과	-12402
▁사람들도	-12403
▁사람들을	-12404
▁사람보다	-12405
▁사람이네	-12406
▁사람인가	-12407
▁사람인지	-12408
▁사랑없이	-12409
▁사랑에서	-12410
▁사랑이란	-12411
▁사랑인가	-12412
▁사랑해도	-12413
▁사랑해줘	-12414
▁사랑했기	-12415
▁사야겠지	-12416
▁사오세요	-12417
▁사이라면	-12418
▁사이즈를	-12419
▁사주세요	-12420
▁사춘기로	-12421
▁살기에는	-12422
▁살아야돼	-12423
▁삼겹살에	-12424
▁상담이나	-12425
▁상대분이	-12426
▁상사예요	-12427
▁상사한테	-12428
▁상종하지	-12429
▁상처주는	-12430
▁상처주지	-12431
▁상처줬어	-12432
▁상태에서	-12433
▁상황에서	-12434
▁상황인지	-12435
▁색다른걸	-12436
▁생각나서	-12437
▁생각난다	-12438
▁생각났을	-12439
▁생각인지	-12440
▁생각하기	-12441
▁생각하며	-12442
▁생각했을	-12443
▁생겼나봐	-12444
▁생기시길	-12445
▁생긴다고	-12446
▁생일이야	-12447
▁생일인데	-12448
▁샤워가운	-12449
▁서운한거	-12450
▁서운함을	-12451
▁서툴러도	-12452
▁서핑하러	-12453
▁선물이라	-12454
▁선물할까	-12455
▁선생님도	-12456
▁선천적인	-12457
▁선택이든	-12458
▁선택이죠	-12459
▁설날인데	-12460
▁성공에서	-12461
▁성공적일	-12462
▁성공하면	-12463
▁성공했길	-12464
▁성장하려	-12465
▁세수하고	-12466
▁섹스리스	-12467
▁소독하고	-12468
▁소리나서	-12469
▁소맥이요	-12470
▁소분해서	-12471
▁소액결제	-12472
▁소중하게	-12473
▁소중해요	-12474
▁속사정을	-12475
▁속이는건	-12476
▁손재주가	-12477
▁손톱이나	-12478
▁손해예요	-12479
▁솔솔와서	-12480
▁솔직하지	-12481
▁쇼핑몰이	-12482
▁수강신청	-12483
▁수분크림	-12484
▁수상한데	-12485
▁수업시간	-12486
▁수준에서	-12487
▁순간들이	-12488
▁순수했던	-12489
▁술마시고	-12490
▁술마시는	-12491
▁쉽겠어요	-12492
▁슈퍼라도	-12493
▁스노클링	-12494
▁스몰웨딩	-12495
▁스스로도	-12496
▁스스로의	-12497
▁스케일링	-12498
▁스타벅스	-12499
▁스타일러	-12500
▁스타일의	-12501
▁슬프게도	-12502
▁습관으로	-12503
▁시간들을	-12504
▁시간들이	-12505
▁시간이죠	-12506
▁시간인가	-12507
▁시기에요	-12508
▁시베리아	-12509
▁시작하고	-12510
▁시켜야지	-12511
▁시켜줬어	-12512
▁시트지로	-12513
▁식사시간	-12514
▁식습관을	-12515
▁식욕폭발	-12516
▁신용카드	-12517
▁신행준비	-12518
▁신혼인데	-12519
▁실례에요	-12520
▁실례예요	-12521
▁실수한거	-12522
▁실패해도	-12523
▁싫어져요	-12524
▁싫어졌어	-12525
▁싫어할까	-12526
▁싫었는데	-12527
▁싫은가봐	-12528
▁심리상담	-12529
▁심심하다	-12530
▁심쿵하게	-12531
▁심플하게	-12532
▁심하네요	-12533
▁싶어서요	-12534
▁싶어지죠	-12535
▁싶었는데	-12536
▁싶은대로	-12537
▁싸가지고	-12538
▁싸우기만	-12539
▁싸웠는데	-12540
▁썸남인데	-12541
▁썸타는거	-12542
▁썸타는데	-12543
▁쓰니까요	-12544
▁씁쓸하네	-12545
▁씨씨인데	-12546
▁씻어보고	-12547
▁아까워요	-12548
▁아깝네요	-12549
▁아니예요	-12550
▁아닌가봐	-12551
▁아닐지도	-12552
▁아름답게	-12553
▁아무렇지	-12554
▁아무일도	-12555
▁아빠에게	-12556
▁아시네요	-12557
▁아싸해도	-12558
▁아웃풋이	-12559
▁아이돌이	-12560
▁아재인가	-12561
▁아직인가	-12562
▁아파트가	-12563
▁아파하지	-12564
▁아프니까	-12565
▁아픈가요	-12566
▁아픈것도	-12567
▁안가지고	-12568
▁안경테가	-12569
▁안나가고	-12570
▁안녕이죠	-12571
▁안돌아오	-12572
▁안됐네요	-12573
▁안되는게	-12574
▁안된다고	-12575
▁안됩니다	-12576
▁안들어와	-12577
▁안전하지	-12578
▁안정적인	-12579
▁안풀리는	-12580
▁안하고는	-12581
▁안하는게	-12582
▁안했으면	-12583
▁앉아있지	-12584
▁않으셨나	-12585
▁알거예요	-12586
▁알고보니	-12587
▁알바비가	-12588
▁알바예요	-12589
▁알바하면	-12590
▁알아가고	-12591
▁알아내서	-12592
▁알아봐요	-12593
▁알아주는	-12594
▁알았어요	-12595
▁알았으면	-12596
▁앞머리로	-12597
▁앞모습을	-12598
▁앞으로는	-12599
▁애국가요	-12600
▁애매모호	-12601
▁애석해요	-12602
▁야경구경	-12603
▁야경이죠	-12604
▁약해지면	-12605
▁양배추즙	-12606
▁양치하고	-12607
▁어디론가	-12608
▁어디에요	-12609
▁어딘가에	-12610
▁어떡하면	-12611
▁어떡해야	-12612
▁어떤건지	-12613
▁어떻하죠	-12614
▁어렵네요	-12615
▁어렸을때	-12616
▁어리석은	-12617
▁어색해서	-12618
▁어울리면	-12619
▁어장관리	-12620
▁어장이면	-12621
▁어젯밤에	-12622
▁어찌하면	-12623
▁언제했어	-12624
▁얻는다는	-12625
▁얼떨떨할	-12626
▁없는걸요	-12627
▁없어졌네	-12628
▁없었는데	-12629
▁없을거야	-12630
▁엇갈리는	-12631
▁여러가지	-12632
▁여름에는	-12633
▁여우네요	-12634
▁여자애랑	-12635
▁여자애를	-12636
▁여자애의	-12637
▁여자인지	-12638
▁여행가재	-12639
▁엮여있는	-12640
▁연락하기	-12641
▁연락했어	-12642
▁연습하면	-12643
▁연애하다	-12644
▁연예인을	-12645
▁열받아서	-12646
▁열어주지	-12647
▁였나봐요	-12648
▁영어학원	-12649
▁영칼로리	-12650
▁영화보재	-12651
▁예능이요	-12652
▁예랑이가	-12653
▁예민해서	-12654
▁예민해져	-12655
▁예쁘겠죠	-12656
▁예쁘니까	-12657
▁예쁜걸로	-12658
▁예전처럼	-12659
▁오겠네요	-12660
▁오늘보다	-12661
▁오늘부로	-12662
▁오늘처럼	-12663
▁오래가요	-12664
▁오려나요	-12665
▁오빠한테	-12666
▁오해하게	-12667
▁옳은걸까	-12668
▁옷차림도	-12669
▁완전체가	-12670
▁완전하게	-12671
▁왔다갔다	-12672
▁외로움이	-12673
▁외로워서	-12674
▁요긴하긴	-12675
▁요즘에는	-12676
▁욕망이지	-12677
▁우리끼리	-12678
▁우리집에	-12679
▁우울하고	-12680
▁우울하네	-12681
▁우울할땐	-12682
▁운동하게	-12683
▁운동하고	-12684
▁운동하다	-12685
▁운전처럼	-12686
▁울적해서	-12687
▁웃어봐요	-12688
▁웃음나는	-12689
▁월급날을	-12690
▁월급날이	-12691
▁월요일도	-12692
▁웨딩촬영	-12693
▁위로해줄	-12694
▁위해서는	-12695
▁위험하죠	-12696
▁위험할까	-12697
▁위험해요	-12698
▁윗몸일으	-12699
▁유행이래	-12700
▁유행하고	-12701
▁의사표시	-12702
▁의존하는	-12703
▁의지하지	-12704
▁이것저것	-12705
▁이겨내기	-12706
▁이대로가	-12707
▁이벤트를	-12708
▁이별에도	-12709
▁이별하신	-12710
▁이별했네	-12711
▁이별했어	-12712
▁이불에서	-12713
▁이상으로	-12714
▁이상이면	-12715
▁이상하게	-12716
▁이상하지	-12717
▁이상형일	-12718
▁이야기가	-12719
▁이어지길	-12720
▁이해하지	-12721
▁이해해줘	-12722
▁익숙함이	-12723
▁인도해줄	-12724
▁인사부터	-12725
▁인스타를	-12726
▁인연인가	-12727
▁인정해줄	-12728
▁일기예보	-12729
▁일방적인	-12730
▁일상에서	-12731
▁일시적인	-12732
▁일어날까	-12733
▁일요일이	-12734
▁일이냐에	-12735
▁일이었어	-12736
▁일이었을	-12737
▁일이지요	-12738
▁일인자가	-12739
▁입냄새가	-12740
▁입어보고	-12741
▁잇몸에서	-12742
▁있겠지요	-12743
▁있다는데	-12744
▁있다면요	-12745
▁있었는지	-12746
▁있을거라	-12747
▁있을수도	-12748
▁잊고싶다	-12749
▁잊어가요	-12750
▁잊지말고	-12751
▁잊혀지네	-12752
▁잊혀지면	-12753
▁자격증일	-12754
▁자괴감이	-12755
▁자기보다	-12756
▁자기한테	-12757
▁자랑하는	-12758
▁자리에서	-12759
▁자세예요	-12760
▁자신다운	-12761
▁자신하고	-12762
▁자유지만	-12763
▁자율주행	-12764
▁자장가를	-12765
▁자주하면	-12766
▁작은것에	-12767
▁잔인하네	-12768
▁잔잔하네	-12769
▁잘됐으면	-12770
▁잘못이지	-12771
▁잘생겼어	-12772
▁잘생겼지	-12773
▁잘하는지	-12774
▁잘하니까	-12775
▁잘하세요	-12776
▁잘해줘도	-12777
▁잠겼는데	-12778
▁잠수타는	-12779
▁잠수탔어	-12780
▁잠자리에	-12781
▁잠재력은	-12782
▁장기자랑	-12783
▁장단점을	-12784
▁장만하는	-12785
▁재미없지	-12786
▁재밌거나	-12787
▁재밌겠지	-12788
▁재설계가	-12789
▁재택근무	-12790
▁재활용도	-12791
▁재회하고	-12792
▁재회하면	-12793
▁저렴하게	-12794
▁저음이죠	-12795
▁저입니다	-12796
▁저축해서	-12797
▁저편으로	-12798
▁적당해요	-12799
▁적응하고	-12800
▁적이에요	-12801
▁전기장판	-12802
▁전역해서	-12803
▁전하는게	-12804
▁전하세요	-12805
▁전학가게	-12806
▁전형적인	-12807
▁전화왔어	-12808
▁전화하고	-12809
▁전화하기	-12810
▁절약하면	-12811
▁접질렀어	-12812
▁정글에서	-12813
▁정리하려	-12814
▁정리해야	-12815
▁정상이죠	-12816
▁정상일까	-12817
▁정신차리	-12818
▁정열적인	-12819
▁제습기를	-12820
▁조깅하고	-12821
▁조심스레	-12822
▁조용하니	-12823
▁종료네요	-12824
▁좋겠다고	-12825
▁좋더라도	-12826
▁좋아해서	-12827
▁좋았겠죠	-12828
▁좋으면서	-12829
▁좋은점을	-12830
▁좋은차로	-12831
▁좋은텐데	-12832
▁좋을거죠	-12833
▁좋지만은	-12834
▁주물주물	-12835
▁주워담을	-12836
▁주인공은	-12837
▁주차장이	-12838
▁주택청약	-12839
▁죽고싶어	-12840
▁준비하니	-12841
▁준비하면	-12842
▁중간중간	-12843
▁중독에서	-12844
▁중소기업	-12845
▁중요한지	-12846
▁즐거워요	-12847
▁즐겨보는	-12848
▁즐겨야지	-12849
▁증명하는	-12850
▁지각하네	-12851
▁지금까지	-12852
▁지금이죠	-12853
▁지끈거려	-12854
▁지내는데	-12855
▁지냈으면	-12856
▁지름신이	-12857
▁지불하고	-12858
▁지속해도	-12859
▁지압이나	-12860
▁지옥같은	-12861
▁지진나면	-12862
▁지쳐가네	-12863
▁지켜보는	-12864
▁지켜지지	-12865
▁지키면서	-12866
▁직접적인	-12867
▁진급에서	-12868
▁진리예요	-12869
▁진실되게	-12870
▁진심인지	-12871
▁진짜일까	-12872
▁질거예요	-12873
▁질척거리	-12874
▁질투하는	-12875
▁질투하지	-12876
▁짐작하는	-12877
▁집안일이	-12878
▁집앞에서	-12879
▁집착하지	-12880
▁짜장면은	-12881
▁짜증난다	-12882
▁짝사랑인	-12883
▁짝사랑일	-12884
▁짝사랑중	-12885
▁짝사랑한	-12886
▁짧은만남	-12887
▁째깍째깍	-12888
▁찌뿌둥해	-12889
▁찍다보면	-12890
▁차곡차곡	-12891
▁차단하는	-12892
▁착각일까	-12893
▁착각하고	-12894
▁착찹하네	-12895
▁참석하는	-12896
▁참았어요	-12897
▁찾는다고	-12898
▁찾아가고	-12899
▁찾아보는	-12900
▁찾아볼까	-12901
▁찾아야할	-12902
▁찾아오길	-12903
▁챙겨주고	-12904
▁챙겨줄까	-12905
▁챙긴다는	-12906
▁처음이라	-12907
▁천국이니	-12908
▁천재예요	-12909
▁첫데이트	-12910
▁첫사랑도	-12911
▁첫사랑은	-12912
▁첫키스는	-12913
▁청결하게	-12914
▁청소기를	-12915
▁청첩장을	-12916
▁체인으로	-12917
▁초대하고	-12918
▁초록초록	-12919
▁초심으로	-12920
▁최고라고	-12921
▁추적추적	-12922
▁출근시간	-12923
▁출근하기	-12924
▁출퇴근을	-12925
▁충전기도	-12926
▁충전기를	-12927
▁충전하고	-12928
▁충전하는	-12929
▁취직할까	-12930
▁취향인데	-12931
▁치맥이죠	-12932
▁치열하죠	-12933
▁친구사이	-12934
▁친구해도	-12935
▁친절한데	-12936
▁침대에서	-12937
▁카카오톡	-12938
▁카톡에서	-12939
▁카톡하고	-12940
▁카톡하는	-12941
▁카톡하지	-12942
▁카페가면	-12943
▁카페라도	-12944
▁카페인이	-12945
▁커뮤니티	-12946
▁커플부터	-12947
▁컨설팅을	-12948
▁컴백한다	-12949
▁콜록콜록	-12950
▁크게한번	-12951
▁클스마스	-12952
▁키우세요	-12953
▁타이밍을	-12954
▁탈이네요	-12955
▁탈출구를	-12956
▁탈출하고	-12957
▁태그해도	-12958
▁태닝할까	-12959
▁태도네요	-12960
▁태어나고	-12961
▁태어나도	-12962
▁태연하게	-12963
▁택시탈까	-12964
▁통화하면	-12965
▁퇴근시간	-12966
▁트집잡는	-12967
▁특별하죠	-12968
▁티냈는데	-12969
▁팀워크가	-12970
▁파급력이	-12971
▁파혼했어	-12972
▁판단하지	-12973
▁패션으로	-12974
▁편안하고	-12975
▁편이에요	-12976
▁편하대요	-12977
▁편할지도	-12978
▁평소처럼	-12979
▁평안했던	-12980
▁평온하길	-12981
▁포근하죠	-12982
▁포기해야	-12983
▁폰케이스	-12984
▁표출하는	-12985
▁프로젝트	-12986
▁플라토닉	-12987
▁피곤한건	-12988
▁피곤한테	-12989
▁피해가는	-12990
▁피해주지	-12991
▁필요없는	-12992
▁필요하면	-12993
▁필요할까	-12994
▁필요했던	-12995
▁핑계보다	-12996
▁하겠네요	-12997
▁하고싶다	-12998
▁하고싶어	-12999
▁하고싶은	-13000
▁하나밖에	-13001
▁하는거야	-13002
▁하는건가	-13003
▁하늘만큼	-13004
▁하던데요	-13005
▁하루이길	-13006
▁하셔야죠	-13007
▁하셨어요	-13008
▁하시다니	-13009
▁학기에는	-13010
▁한강에서	-13011
▁한눈팔며	-13012
▁한다는데	-13013
▁한달됐어	-13014
▁한달반째	-13015
▁한달인데	-13016
▁한순간에	-13017
▁한순간이	-13018
▁한심하네	-13019
▁함께하면	-13020
▁함께할때	-13021
▁합격하는	-13022
▁해결방안	-13023
▁해결해줄	-13024
▁해도해도	-13025
▁해드세요	-13026
▁해로우니	-13027
▁해로워요	-13028
▁해버렸네	-13029
▁해보는건	-13030
▁해보는게	-13031
▁해봤어요	-13032
▁해야겠어	-13033
▁해야하는	-13034
▁핸드폰은	-13035
▁핸드폰을	-13036
▁했을거라	-13037
▁행복하실	-13038
▁행운까지	-13039
▁허락하는	-13040
▁허례허식	-13041
▁허리띠를	-13042
▁허무하다	-13043
▁헤어나올	-13044
▁헤어져도	-13045
▁헤어지신	-13046
▁헤어진후	-13047
▁헤이진지	-13048
▁현금이면	-13049
▁현실에서	-13050
▁현실이랑	-13051
▁호감가는	-13052
▁호감인지	-13053
▁호르몬이	-13054
▁호의인지	-13055
▁혼나면서	-13056
▁혼란스럽	-13057
▁혼자인게	-13058
▁혼자하는	-13059
▁화가나네	-13060
▁화장실을	-13061
▁화장으로	-13062
▁확신하는	-13063
▁확실하지	-13064
▁확실한지	-13065
▁확실해졌	-13066
▁환기하는	-13067
▁환승하는	-13068
▁활력소가	-13069
▁회사네요	-13070
▁후련하길	-13071
▁후회하고	-13072
▁휴대폰이	-13073
▁흔들리고	-13074
▁흔들리네	-13075
▁희망고문	-13076
▁힘겨울때	-13077
▁힘내라는	-13078
▁힘드네여	-13079
▁힘든가요	-13080
▁힘든거네	-13081
▁힘들기도	-13082
▁힘들어할	-13083
▁힘들텐데	-13084
나가는거죠	-13085
스럽습니다	-13086
이었을까요	-13087
주려나봐요	-13088
하기로했어	-13089
하나봅니다	-13090
해야하는걸	-13091
▁가을이네요	-13092
▁가져가세요	-13093
▁각질제거를	-13094
▁간접적으로	-13095
▁갈렸나봐요	-13096
▁감성적이기	-13097
▁감싸주세요	-13098
▁감정기복이	-13099
▁감정소모가	-13100
▁감정이에요	-13101
▁감정조절이	-13102
▁갑작스러웠	-13103
▁갔다와야지	-13104
▁강박관념에	-13105
▁강추위래요	-13106
▁개인적으로	-13107
▁거짓말이길	-13108
▁걱정이네요	-13109
▁걱정이에요	-13110
▁게임하세요	-13111
▁게임할때는	-13112
▁견뎌보세요	-13113
▁결심이네요	-13114
▁결정난데요	-13115
▁결혼식이야	-13116
▁결혼하겠대	-13117
▁결혼하세요	-13118
▁결혼해서도	-13119
▁경쟁하겠죠	-13120
▁경제적으로	-13121
▁경험이라고	-13122
▁계절이에요	-13123
▁계획적이고	-13124
▁고기앞이죠	-13125
▁고마운만큼	-13126
▁고민이에요	-13127
▁고시원에서	-13128
▁곤두세우지	-13129
▁곳이라면요	-13130
▁곳인가봐요	-13131
▁공개적으로	-13132
▁공급하려는	-13133
▁공동육아가	-13134
▁공부방법을	-13135
▁공부하면서	-13136
▁공부하자고	-13137
▁공시생인데	-13138
▁공통이에요	-13139
▁공휴일에는	-13140
▁관계입니다	-13141
▁관리해봐요	-13142
▁괜찮다가도	-13143
▁괜찮아지길	-13144
▁괜찮았는데	-13145
▁괜찮은가요	-13146
▁괜찮은거로	-13147
▁구박하지는	-13148
▁구여친이랑	-13149
▁구하셨나요	-13150
▁궁금하다고	-13151
▁귀차니즘을	-13152
▁귀찮아할까	-13153
▁그녀에게도	-13154
▁그럴거예요	-13155
▁그리워하는	-13156
▁그립습니다	-13157
▁그만하는게	-13158
▁극복하거나	-13159
▁근무시간이	-13160
▁금물이에요	-13161
▁금연하세요	-13162
▁긍정적으로	-13163
▁긍정적이고	-13164
▁기다려봐요	-13165
▁기다렸다가	-13166
▁기다리라고	-13167
▁기다리면서	-13168
▁기다리지도	-13169
▁기대로부터	-13170
▁기본이에요	-13171
▁기본인데요	-13172
▁기분전환에	-13173
▁기분전환이	-13174
▁기어오른다	-13175
▁기억해주고	-13176
▁기울여봐요	-13177
▁기울여주고	-13178
▁기특하네요	-13179
▁김치볶음밥	-13180
▁깔끔하겠죠	-13181
▁꿰메보세요	-13182
▁끓여드세요	-13183
▁끝냈습니다	-13184
▁끝인가봐요	-13185
▁끝인거겠죠	-13186
▁끝인거예요	-13187
▁나오겠네요	-13188
▁나이테예요	-13189
▁남겨보세요	-13190
▁남동생한테	-13191
▁남자친구는	-13192
▁내년이라고	-13193
▁내려두세요	-13194
▁내려주세요	-13195
▁내렸나봐요	-13196
▁너무하는게	-13197
▁넘겨보세요	-13198
▁넣어보세요	-13199
▁노려보세요	-13200
▁노력해야죠	-13201
▁녹여보세요	-13202
▁놀아드리고	-13203
▁놀이동산은	-13204
▁높나봅니다	-13205
▁높아집니다	-13206
▁높여보세요	-13207
▁느낀다면요	-13208
▁느낌이네요	-13209
▁느낌이에요	-13210
▁느려지는듯	-13211
▁능력이겠죠	-13212
▁능력이라면	-13213
▁다가가는게	-13214
▁다가가야죠	-13215
▁다가갔네요	-13216
▁다가왔네요	-13217
▁다르니까요	-13218
▁다음달에는	-13219
▁다이렉트로	-13220
▁다이어트를	-13221
▁다짐이에요	-13222
▁다행입니다	-13223
▁달라졌겠죠	-13224
▁달라지겠죠	-13225
▁달랐나봐요	-13226
▁달렸나봐요	-13227
▁달콤하네요	-13228
▁답답하다면	-13229
▁당당해져도	-13230
▁당했나봐요	-13231
▁당했습니다	-13232
▁대수인가요	-13233
▁대체불가한	-13234
▁대화하면서	-13235
▁데려달라고	-13236
▁데이트하기	-13237
▁도망가라는	-13238
▁도서관에서	-13239
▁도와드리면	-13240
▁도와주려는	-13241
▁동감이에요	-13242
▁동의한다면	-13243
▁되시겠어요	-13244
▁되어갑니다	-13245
▁되었겠네요	-13246
▁될수있겠죠	-13247
▁두근거려요	-13248
▁뒤돌아봐도	-13249
▁뒷담화하는	-13250
▁뒹굴거리고	-13251
▁들어가기가	-13252
▁들어가세요	-13253
▁들었나봐요	-13254
▁따라가겠지	-13255
▁따라가려면	-13256
▁따라와주지	-13257
▁딸기잼에게	-13258
▁떠났습니다	-13259
▁뚫어보아요	-13260
▁띄어보세요	-13261
▁레시피대로	-13262
▁로망이네요	-13263
▁로맨틱해요	-13264
▁리폼할거야	-13265
▁마련이지요	-13266
▁마음에서도	-13267
▁마음이란게	-13268
▁막아보세요	-13269
▁만나고왔어	-13270
▁만나보시면	-13271
▁만났는데도	-13272
▁만드나봐요	-13273
▁만들거예요	-13274
▁만들어볼까	-13275
▁만들어야지	-13276
▁만들어주는	-13277
▁많으시군요	-13278
▁많으시네요	-13279
▁많을거예요	-13280
▁말아보셔요	-13281
▁말하는대로	-13282
▁말해달라고	-13283
▁말해보는게	-13284
▁맛있겠네요	-13285
▁맞는거겠죠	-13286
▁맞춰가기도	-13287
▁맞춰주세요	-13288
▁매력이겠죠	-13289
▁머리스타일	-13290
▁머리카락이	-13291
▁머릿속에서	-13292
▁먹었습니다	-13293
▁메모리카드	-13294
▁모르겠는데	-13295
▁모습일지도	-13296
▁모처럼만에	-13297
▁못지우겠네	-13298
▁무덤덤한데	-13299
▁무리하지는	-13300
▁무섭습니다	-13301
▁무소음으로	-13302
▁무엇인가를	-13303
▁무한리필만	-13304
▁문제겠네요	-13305
▁물어보면서	-13306
▁뭐하냐는데	-13307
▁미끄러우니	-13308
▁미루지말고	-13309
▁미안해하는	-13310
▁밑바닥까지	-13311
▁바라봤을때	-13312
▁바쁘더라도	-13313
▁받아들여요	-13314
▁받아들이지	-13315
▁받았습니다	-13316
▁받지마세요	-13317
▁밤인가봐요	-13318
▁방학이예요	-13319
▁배워보세요	-13320
▁버려달라고	-13321
▁버려보세요	-13322
▁버려야겠지	-13323
▁버려야지요	-13324
▁버텨냈어요	-13325
▁변덕스러운	-13326
▁변명보다는	-13327
▁변해가는거	-13328
▁보고싶다고	-13329
▁보고싶어서	-13330
▁보고싶어요	-13331
▁보내겠네요	-13332
▁보답하세요	-13333
▁보셨나봐요	-13334
▁보약이에요	-13335
▁보여보세요	-13336
▁복잡하네요	-13337
▁본거에서는	-13338
▁본받으면서	-13339
▁부담스럽게	-13340
▁부려보세요	-13341
▁부모님만의	-13342
▁부모님이나	-13343
▁부분이에요	-13344
▁부족하지만	-13345
▁부족합니다	-13346
▁분들이에요	-13347
▁분이시군요	-13348
▁불공평해요	-13349
▁불러주세요	-13350
▁불안해하지	-13351
▁붙잡으세요	-13352
▁블록체인이	-13353
▁비워보세요	-13354
▁비정상이야	-13355
▁비틀어져요	-13356
▁비행기표가	-13357
▁비혼주의래	-13358
▁빌려줬는데	-13359
▁빠르시군요	-13360
▁빠졌나봐요	-13361
▁빼앗겼다고	-13362
▁뿌려보세요	-13363
▁뿐이니까요	-13364
▁사과하는게	-13365
▁사과해야죠	-13366
▁사나봅니다	-13367
▁사다리타기	-13368
▁사람들이나	-13369
▁사람들이랑	-13370
▁사람들이요	-13371
▁사람이군요	-13372
▁사람이니까	-13373
▁사람이라고	-13374
▁사람이었어	-13375
▁사람이예요	-13376
▁사람입니다	-13377
▁사람한테만	-13378
▁사랑만으로	-13379
▁사랑이라면	-13380
▁사랑하는게	-13381
▁사랑하면서	-13382
▁사랑해라고	-13383
▁사랑했는데	-13384
▁사랑했다는	-13385
▁사로잡히지	-13386
▁사먹으세요	-13387
▁사실이네요	-13388
▁사야되는데	-13389
▁사회생활로	-13390
▁사회생활을	-13391
▁사회생활의	-13392
▁사회에서도	-13393
▁살아보세요	-13394
▁상대적으로	-13395
▁상대적이죠	-13396
▁생각난다면	-13397
▁생각입니다	-13398
▁생각하기는	-13399
▁생각한다고	-13400
▁생각한다면	-13401
▁생각해주는	-13402
▁생각했나봐	-13403
▁생각했어요	-13404
▁생겼을때는	-13405
▁생일입니다	-13406
▁생활용품이	-13407
▁생활패턴을	-13408
▁샤워하는데	-13409
▁서비스센터	-13410
▁선물이에요	-13411
▁선물해볼까	-13412
▁선생님이나	-13413
▁선생님이요	-13414
▁선생님한테	-13415
▁선택했어요	-13416
▁설레겠어요	-13417
▁설렜나봐요	-13418
▁섬유탈취제	-13419
▁성덕이네요	-13420
▁세상이에요	-13421
▁셀프였으면	-13422
▁셀프웨딩이	-13423
▁소개팅한다	-13424
▁소름돋네요	-13425
▁소액결제를	-13426
▁소화시켜야	-13427
▁속시원해요	-13428
▁속아주세요	-13429
▁손해배상을	-13430
▁솔직했으면	-13431
▁순수하다는	-13432
▁쉬어주세요	-13433
▁쉬워보이나	-13434
▁슈퍼우먼이	-13435
▁습관이라고	-13436
▁시간이지요	-13437
▁시간표대로	-13438
▁시급하네요	-13439
▁시도해봐도	-13440
▁시어머니도	-13441
▁시원하네요	-13442
▁시작됩니다	-13443
▁시작해보면	-13444
▁시켜보세요	-13445
▁시키는데로	-13446
▁식단이네요	-13447
▁식단조절도	-13448
▁식혀주세요	-13449
▁신기하네요	-13450
▁신혼여행은	-13451
▁실수한건가	-13452
▁실수했나요	-13453
▁실천하기는	-13454
▁싫은가봐요	-13455
▁심심하다고	-13456
▁싱숭생숭한	-13457
▁싶은가봐요	-13458
▁쓰리겠어요	-13459
▁쓰셨나봐요	-13460
▁쓸데없어요	-13461
▁씌였나봐요	-13462
▁아니었나요	-13463
▁아니었네요	-13464
▁아무렇게나	-13465
▁아쉽겠어요	-13466
▁아울렛이죠	-13467
▁아이다워야	-13468
▁아이라이너	-13469
▁아줌마들이	-13470
▁아침이에요	-13471
▁아파하면서	-13472
▁아프겠네요	-13473
▁안갈거예요	-13474
▁안나겠어요	-13475
▁안나나봐요	-13476
▁안되겠지만	-13477
▁안되는건가	-13478
▁안읽씹하면	-13479
▁안정적이고	-13480
▁안타까워요	-13481
▁안타깝지만	-13482
▁않았을텐데	-13483
▁않은가봐요	-13484
▁알게되면서	-13485
▁알겠습니다	-13486
▁알아가야죠	-13487
▁알아봐주는	-13488
▁애석하네요	-13489
▁어디서부터	-13490
▁어디있을까	-13491
▁어려서부터	-13492
▁어려우니까	-13493
▁어렵겠지만	-13494
▁어렸을때는	-13495
▁어린가봐요	-13496
▁어색해졌어	-13497
▁어쩔수없죠	-13498
▁엄마아빠랑	-13499
▁업데이트가	-13500
▁없는걸지도	-13501
▁없어가지구	-13502
▁여기까지가	-13503
▁여름이네요	-13504
▁여행지에서	-13505
▁연락이었길	-13506
▁연락하세요	-13507
▁연락했을까	-13508
▁연습하거나	-13509
▁연애세포가	-13510
▁연애였는데	-13511
▁연연해하지	-13512
▁열까지밖에	-13513
▁열어보세요	-13514
▁영원했으면	-13515
▁예뻐보이는	-13516
▁예뻐지나봐	-13517
▁예약하세요	-13518
▁오래됐는데	-13519
▁오려나봐요	-13520
▁오해할만한	-13521
▁올려보세요	-13522
▁올려봅니다	-13523
▁외로우니까	-13524
▁외출하세요	-13525
▁왼손잡이가	-13526
▁요구하세요	-13527
▁용기내보는	-13528
▁용기내세요	-13529
▁용서하면서	-13530
▁우선순위로	-13531
▁우선순위를	-13532
▁우선순위면	-13533
▁우정이란게	-13534
▁운동하면서	-13535
▁운명인가요	-13536
▁운명일지도	-13537
▁운전하는거	-13538
▁울어보세요	-13539
▁움직이기가	-13540
▁움츠러들지	-13541
▁원하는대로	-13542
▁웨딩드레스	-13543
▁위기이면서	-13544
▁위로봇이요	-13545
▁위험하네요	-13546
▁유머코드가	-13547
▁유의하세요	-13548
▁음료수라도	-13549
▁의미일까요	-13550
▁이겨냈어요	-13551
▁이겨야해요	-13552
▁이끌어주는	-13553
▁이러는걸까	-13554
▁이뤄보아요	-13555
▁이모티콘을	-13556
▁이별이야기	-13557
▁이별하거나	-13558
▁이사람이다	-13559
▁이상형이야	-13560
▁이성으로서	-13561
▁이성이니까	-13562
▁이성친구가	-13563
▁이야기했던	-13564
▁이해하려고	-13565
▁익숙해져서	-13566
▁익숙해지는	-13567
▁인간이라는	-13568
▁인공눈물을	-13569
▁인사해줬어	-13570
▁일반인보다	-13571
▁일부니까요	-13572
▁일인가봐요	-13573
▁일주일만에	-13574
▁있어요라고	-13575
▁잊지마세요	-13576
▁잊지못하고	-13577
▁자괴감에서	-13578
▁자기개발을	-13579
▁자리니까요	-13580
▁자신감있게	-13581
▁자야하는데	-13582
▁자유로워질	-13583
▁자장면이요	-13584
▁작동하는지	-13585
▁잘못이네요	-13586
▁잘생겼어요	-13587
▁잘지내고있	-13588
▁잘지내는지	-13589
▁잘해줬더니	-13590
▁장거리연애	-13591
▁재미있는거	-13592
▁쟁취하세요	-13593
▁저기압에는	-13594
▁저주할거야	-13595
▁저평가되어	-13596
▁적극적이면	-13597
▁적으니까요	-13598
▁전남자친구	-13599
▁전남친이랑	-13600
▁전남친한테	-13601
▁전여자친구	-13602
▁전여친에게	-13603
▁전해졌으면	-13604
▁절약해봐요	-13605
▁접어두는게	-13606
▁정리되었길	-13607
▁정리될지도	-13608
▁정리해야지	-13609
▁정리해야할	-13610
▁정신적으로	-13611
▁제철과일이	-13612
▁조급해하지	-13613
▁졸린가봐요	-13614
▁좋아하나요	-13615
▁좋아하는걸	-13616
▁좋아했지만	-13617
▁좋았겠어요	-13618
▁좋은것만은	-13619
▁좋을거예요	-13620
▁주당이에요	-13621
▁주실거예요	-13622
▁죽을것같아	-13623
▁준비하면서	-13624
▁준비한만큼	-13625
▁중요한데요	-13626
▁중요합니다	-13627
▁증명자료를	-13628
▁증상이에요	-13629
▁지금처럼만	-13630
▁지나가네요	-13631
▁지나갑니다	-13632
▁지나갔네요	-13633
▁지나갔으면	-13634
▁지내봅시다	-13635
▁지냈나봐요	-13636
▁지켜달라고	-13637
▁지켜보기만	-13638
▁지켜보는게	-13639
▁지하철에서	-13640
▁직설적으로	-13641
▁진출해볼까	-13642
▁질문이네요	-13643
▁짝사랑만이	-13644
▁짝사랑인지	-13645
▁쪼잔하네요	-13646
▁찌푸려지죠	-13647
▁찜질방에서	-13648
▁차단하는게	-13649
▁찬성이에요	-13650
▁참석하는게	-13651
▁찾아올거라	-13652
▁챙겨드리고	-13653
▁챙겨보세요	-13654
▁챙겨야해요	-13655
▁챙겼나봐요	-13656
▁처리하세요	-13657
▁청구하세요	-13658
▁초대하려고	-13659
▁최고입니다	-13660
▁최우선이죠	-13661
▁추천해들요	-13662
▁축하해주고	-13663
▁출퇴근하기	-13664
▁충실하세요	-13665
▁취미생활은	-13666
▁취준생인데	-13667
▁치열해지는	-13668
▁치워주세요	-13669
▁친구로서와	-13670
▁침묵하세요	-13671
▁침착해야지	-13672
▁침해당하기	-13673
▁커플여행이	-13674
▁코인노래방	-13675
▁코코넛오일	-13676
▁크시겠네요	-13677
▁타임머신이	-13678
▁태산이에요	-13679
▁태어났어요	-13680
▁태어났으면	-13681
▁투성이에요	-13682
▁트라우마가	-13683
▁평범하면서	-13684
▁표현이에요	-13685
▁프로그램을	-13686
▁필요하겠죠	-13687
▁필요하지요	-13688
▁필요할지도	-13689
▁필요합니다	-13690
▁하겠습니다	-13691
▁하는거같아	-13692
▁하더라고요	-13693
▁하루였나요	-13694
▁하루하루를	-13695
▁하셔야해요	-13696
▁하시겠네요	-13697
▁할인점에서	-13698
▁해결하라고	-13699
▁해놨나봐요	-13700
▁해야하나봐	-13701
▁해줘보세요	-13702
▁핸드폰없이	-13703
▁했나봅니다	-13704
▁행동이냐에	-13705
▁행동일수도	-13706
▁행복일지도	-13707
▁행복해지기	-13708
▁행복해하는	-13709
▁헤어졌다는	-13710
▁헤어지자네	-13711
▁헤어짐에도	-13712
▁헷갈리나요	-13713
▁헹궈보세요	-13714
▁현상입니다	-13715
▁현실이에요	-13716
▁혼내줄게요	-13717
▁혼전순결이	-13718
▁홈쇼핑에서	-13719
▁확인해봐요	-13720
▁효과적일까	-13721
▁효도하세요	-13722
▁효율적으로	-13723
▁후련하네여	-13724
▁후련하다니	-13725
▁후련하달까	-13726
▁흘러가네요	-13727
▁흘러갑니다	-13728
▁힘들게네요	-13729
▁힘들겠지요	-13730
▁힘들어져요	-13731
▁가능하다면요	-13732
▁가벼움이네요	-13733
▁감수해보세요	-13734
▁같이해보세요	-13735
▁갚아나가세요	-13736
▁게임해보세요	-13737
▁결혼하고싶어	-13738
▁결혼해야할까	-13739
▁경쟁해야하고	-13740
▁경험해보세요	-13741
▁고백해도될까	-13742
▁공감해주는게	-13743
▁공유해보세요	-13744
▁관리해주세요	-13745
▁괜찮아졌다가	-13746
▁괜찮아지세요	-13747
▁구멍이니까요	-13748
▁구별해보세요	-13749
▁그런건가봐요	-13750
▁기다렸나봐요	-13751
▁기다리게했어	-13752
▁기다린다는게	-13753
▁기대되겠네요	-13754
▁기분일꺼에요	-13755
▁기초대사량을	-13756
▁기프트콘으로	-13757
▁긴장되겠어요	-13758
▁긴장했나봐요	-13759
▁까먹었나봐요	-13760
▁끊어버리세요	-13761
▁나쁘셨나봐요	-13762
▁난감하겠어요	-13763
▁날려버리시길	-13764
▁남자사람친구	-13765
▁낭만이라고는	-13766
▁내딛으셨네요	-13767
▁내려보는것도	-13768
▁다니시나봐요	-13769
▁다듬기만해도	-13770
▁단계인가봐요	-13771
▁단단해지세요	-13772
▁당당해지세요	-13773
▁당신이니까요	-13774
▁대인배시군요	-13775
▁데려다줬는데	-13776
▁도와주었다고	-13777
▁돈버는사람은	-13778
▁되돌아보세요	-13779
▁뒤따르니까요	-13780
▁득템해오세요	-13781
▁들어올거예요	-13782
▁들어줄거예요	-13783
▁들여다보세요	-13784
▁들이대보세요	-13785
▁디자이너에게	-13786
▁리드해보세요	-13787
▁마무리하시길	-13788
▁마음가는대로	-13789
▁막막하겠네요	-13790
▁만들더라고요	-13791
▁만들어주세요	-13792
▁만족해야겠지	-13793
▁말씀이신가요	-13794
▁말조심하세요	-13795
▁멍때리는것도	-13796
▁모른척하세요	-13797
▁무궁무진해요	-13798
▁무시해주세요	-13799
▁물어보시나요	-13800
▁물어봐보세요	-13801
▁물어주시다니	-13802
▁바라겠습니다	-13803
▁받아들여지지	-13804
▁받아들이는게	-13805
▁받으셨겠어요	-13806
▁받으시나봐요	-13807
▁발급받으세요	-13808
▁방문해보세요	-13809
▁변화시켜봐요	-13810
▁변화해보세요	-13811
▁병행해보세요	-13812
▁보관해보세요	-13813
▁보여드리세요	-13814
▁복원해보세요	-13815
▁복잡하겠네요	-13816
▁복잡했나봐요	-13817
▁볼매인가봐요	-13818
▁부담스러운데	-13819
▁부담스러운지	-13820
▁부족했나봐요	-13821
▁북치기박치기	-13822
▁분석해보세요	-13823
▁분양받으세요	-13824
▁불타올랐다가	-13825
▁비슷한가봐요	-13826
▁빌렸으니까요	-13827
▁빨래해보세요	-13828
▁뻐근한가봐요	-13829
▁사과해보세요	-13830
▁사내커플인데	-13831
▁사람들이군요	-13832
▁사랑이라는건	-13833
▁사랑자격증을	-13834
▁사랑하고싶어	-13835
▁사랑하나봐요	-13836
▁사랑해보세요	-13837
▁사셔야겠어요	-13838
▁삼재인가봐요	-13839
▁상처받는다고	-13840
▁상황인가봐요	-13841
▁생각하셔야죠	-13842
▁생각해주세요	-13843
▁선택해보세요	-13844
▁설명해보세요	-13845
▁섬유유연제나	-13846
▁성공할거예요	-13847
▁성장하나봐요	-13848
▁소개해보세요	-13849
▁속상할거예요	-13850
▁쇼핑해보세요	-13851
▁숙면하겠네요	-13852
▁스릴있겠네요	-13853
▁스타일이네요	-13854
▁스타트업하면	-13855
▁스터디하자고	-13856
▁식습관이에요	-13857
▁식이요법이랑	-13858
▁신경쓰인다고	-13859
▁실행해보세요	-13860
▁심경인가봐요	-13861
▁싱숭생숭해서	-13862
▁아니었을지도	-13863
▁안전거리확보	-13864
▁않을까싶어요	-13865
▁알려주나봐요	-13866
▁알바해보세요	-13867
▁어울려보세요	-13868
▁언제부터인지	-13869
▁여우인가봐요	-13870
▁여자사람친구	-13871
▁여자친구와의	-13872
▁연락하고싶어	-13873
▁연락해보는게	-13874
▁연습해봅시다	-13875
▁연애스타일이	-13876
▁예뻐지겠네요	-13877
▁오락가락해요	-13878
▁올려봐보세요	-13879
▁요리해드세요	-13880
▁요청해보세요	-13881
▁원동력이예요	-13882
▁위로해줄게요	-13883
▁윗몸일으키기	-13884
▁유지해보세요	-13885
▁응원해주세요	-13886
▁이겨야한다는	-13887
▁이루어졌으면	-13888
▁이웃으로부터	-13889
▁이해못하겠어	-13890
▁인정받으려면	-13891
▁일어나보세요	-13892
▁일어났나봐요	-13893
▁일하시나봐요	-13894
▁있어드릴게요	-13895
▁자연스러우면	-13896
▁자유여행이죠	-13897
▁자취한다는데	-13898
▁잘해야하나봐	-13899
▁잘해줘보세요	-13900
▁전여자친구가	-13901
▁전환해보세요	-13902
▁정들었나봐요	-13903
▁조심해야해요	-13904
▁조심했어야죠	-13905
▁조언해주세요	-13906
▁좋아보이네요	-13907
▁좋아하는건가	-13908
▁좋아하시니까	-13909
▁좋아해주세요	-13910
▁좋으시겠어요	-13911
▁주무셨나봐요	-13912
▁주저리주저리	-13913
▁중고서점에서	-13914
▁중요해졌어요	-13915
▁지원해보세요	-13916
▁짝사랑하는게	-13917
▁차단해보세요	-13918
▁찾아가보세요	-13919
▁찾아갔습니다	-13920
▁채워드릴게요	-13921
▁청소해보세요	-13922
▁청춘이어야죠	-13923
▁초기화하는게	-13924
▁추가해보세요	-13925
▁추세더라구요	-13926
▁충전해주세요	-13927
▁취직이나라뇨	-13928
▁치료해보세요	-13929
▁크리스마스가	-13930
▁크리스마스에	-13931
▁타이밍이네요	-13932
▁타이밍입니다	-13933
▁택배기사님들	-13934
▁포기안한다고	-13935
▁포커페이스를	-13936
▁프라이버시를	-13937
▁피부관리까지	-13938
▁필요하시군요	-13939
▁필요했을텐데	-13940
▁하셨나보군요	-13941
▁하우스웨딩이	-13942
▁한순간이예요	-13943
▁해결해주지는	-13944
▁행복해보여요	-13945
▁행복해지세요	-13946
▁행복해지시길	-13947
▁행복해질려고	-13948
▁현금영수증은	-13949
▁후회하겠네요	-13950
▁흔들리겠어요	-13951
▁희망적이에요	-13952
▁힘드셨겠어요	-13953
▁힘드시겠네요	-13954
▁힘들어졌어요	-13955
▁가벼워질거예요	-13956
▁감기조심하세요	-13957
▁갑작스럽겠네요	-13958
▁강림했나봅니다	-13959
▁거짓말이겠지요	-13960
▁건강습관이네요	-13961
▁건강습관이에요	-13962
▁건들이지마세요	-13963
▁결정이었겠어요	-13964
▁결정이었나봐요	-13965
▁공기정화식물도	-13966
▁궁금하더라고요	-13967
▁기다려지겠네요	-13968
▁기분나쁘겠어요	-13969
▁날이었나봅니다	-13970
▁두근거리겠네요	-13971
▁모으시는거예요	-13972
▁물어보고싶네요	-13973
▁미끄러질뻔했어	-13974
▁발전시켜보세요	-13975
▁백업해놓으세요	-13976
▁보고싶었나봐요	-13977
▁부담스러워하진	-13978
▁사람이었는가를	-13979
▁사랑했으니까요	-13980
▁사춘기로부터의	-13981
▁상종하지마세요	-13982
▁상처받았나봐요	-13983
▁생각할수있어요	-13984
▁생각해드릴게요	-13985
▁소개시켜주세요	-13986
▁수학여행가는데	-13987
▁시간이었을거라	-13988
▁시기였을거예요	-13989
▁신경쓰지마세요	-13990
▁아니셨을거예요	-13991
▁아니었나봅니다	-13992
▁알아주실거예요	-13993
▁앞머리만이라도	-13994
▁애정표현이라고	-13995
▁엮여있는거예요	-13996
▁연락드려보세요	-13997
▁오지랖이었으면	-13998
▁유행하고있어요	-13999
▁음악감상이라고	-14000
▁이야기해주세요	-14001
▁이어나가니까요	-14002
▁이해해줘야할까	-14003
▁익숙해질거예요	-14004
▁인지시켜보세요	-14005
▁잊혀지더라고요	-14006
▁자유로워지세요	-14007
▁자책하지마세요	-14008
▁잔소리해보세요	-14009
▁저평가되어있는	-14010
▁좋아졌나봅니다	-14011
▁좋아하시나봐요	-14012
▁좌절하지마세요	-14013
▁준비하는방법이	-14014
▁채워나가는거죠	-14015
▁초록초록하네요	-14016
▁크리스마스에는	-14017
▁포기하지마세요	-14018
▁프라이버시니까	-14019
▁피곤하신가봐요	-14020
▁필요해보이네요	-14021
▁하게하고싶은데	-14022
▁허례허식이에요	-14023
▁허전하시겠어요	-14024
▁허전하신가봐요	-14025
▁헤어져야하는게	-14026
▁간질간질한가봐요	-14027
▁갑작스러웠나봐요	-14028
▁게스트하우스에서	-14029
▁궁금해하지마세요	-14030
▁데려다주려나봐요	-14031
▁발렌타인데이인데	-14032
▁사춘기인가봅니다	-14033
▁소개시켜드릴게요	-14034
▁소개팅하기로했어	-14035
▁수면양말인가봐요	-14036
▁스트레칭해주세요	-14037
▁인연이었나봅니다	-14038
▁질척거리지마세요	-14039
▁안전거리확보하세요	-14040
;;;	-14041
▁go	-14042
▁곡에	-14043
▁깬다	-14044
▁깼어	-14045
▁꿰매	-14046
▁낀게	-14047
▁낸거	-14048
▁논문	-14049
▁뇌용	-14050
▁님들	-14051
▁떴다	-14052
▁떼는	-14053
▁묘약	-14054
▁묘해	-14055
▁박력	-14056
▁벨이	-14057
▁빛나	-14058
▁뺏긴	-14059
▁뽀송	-14060
▁섞고	-14061
▁섞인	-14062
▁썰고	-14063
▁씰룩	-14064
▁엊갈	-14065
▁엿먹	-14066
▁워워	-14067
▁젊게	-14068
▁쥐고	-14069
▁켠에	-14070
▁켠이	-14071
▁툭툭	-14072
▁틈도	-14073
▁풍부	-14074
▁헐크	-14075
▁홀로	-14076
▁홀시	-14077
▁홧병	-14078
가나바	-14079
거고민	-14080
걸레질	-14081
걸리먹	-14082
견해가	-14083
고빙수	-14084
고싶고	-14085
기다려	-14086
기라던	-14087
꺼같네	-14088
끗차이	-14089
냈었지	-14090
년사귀	-14091
년오늘	-14092
녔던곳	-14093
노력해	-14094
는것은	-14095
다수의	-14096
당간당	-14097
도노력	-14098
동거중	-14099
100	-14100
▁겪는	-14101
▁국경	-14102
▁굴뚝	-14103
▁꽉막	-14104
▁둔한	-14105
▁띵해	-14106
▁렌즈	-14107
▁렌트	-14108
▁맴돈	-14109
▁맺길	-14110
▁쫄딱	-14111
▁탁월	-14112
▁햇갈	-14113
▁햇살	-14114
▁험담	-14115
가기전	-14116
가능성	-14117
게되넹	-14118
고있니	-14119
기네여	-14120
되니깐	-14121
랑비에	-14122
레질도	-14123
로그를	-14124
마시며	-14125
방망이	-14126
보낼지	-14127
보려해	-14128
보셨어	-14129
봇할래	-14130
봐야돼	-14131
부르니	-14132
부탁좀	-14133
비용이	-14134
사이의	-14135
산휴가	-14136
선배와	-14137
세는것	-14138
시작이	-14139
시켰어	-14140
시킬게	-14141
신차단	-14142
싶지않	-14143
아볼께	-14144
아직이	-14145
아파트	-14146
안되고	-14147
안된다	-14148
어린왕	-14149
언부탁	-14150
었기에	-14151
었는줄	-14152
에올려	-14153
여기다	-14154
웃음만	-14155
으신가	-14156
은것만	-14157
은지금	-14158
이란걸	-14159
인사나	-14160
인줄알	-14161
일짼데	-14162
잊은것	-14163
잊혀지	-14164
잔치함	-14165
쟁이로	-14166
전제로	-14167
정권이	-14168
정말싫	-14169
져야해	-14170
지우네	-14171
지질않	-14172
집에놀	-14173
차단에	-14174
찰랑한	-14175
치워야	-14176
치쪽이	-14177
치찌개	-14178
트롤이	-14179
트롤할	-14180
프로필	-14181
하겟죠	-14182
하소연	-14183
한척해	-14184
할꺼야	-14185
할라구	-14186
했었대	-14187
활용법	-14188
희망이	-14189
▁119	-14190
▁가거든	-14191
▁가상화	-14192
▁가수의	-14193
▁가입해	-14194
▁가혹한	-14195
▁간섭이	-14196
▁갈구지	-14197
▁강요할	-14198
▁개좋아	-14199
▁500	-14200
▁600	-14201
▁갠톡은	-14202
▁거래처	-14203
▁걸쳐서	-14204
▁것일뿐	-14205
▁겉으로	-14206
▁결재가	-14207
▁계탔어	-14208
▁고르기	-14209
▁고하며	-14210
▁곤두서	-14211
▁곱씹지	-14212
▁공황증	-14213
▁과제나	-14214
▁관문을	-14215
▁구걸하	-14216
▁구두가	-14217
▁구질구	-14218
▁국경은	-14219
▁국경이	-14220
▁그때도	-14221
▁그때의	-14222
▁그름이	-14223
▁그지임	-14224
▁근교로	-14225
▁근황을	-14226
▁기쁨과	-14227
▁기적도	-14228
▁기절할	-14229
▁기한은	-14230
▁기한을	-14231
▁기획사	-14232
▁긴여정	-14233
▁깊어져	-14234
▁꽉막힌	-14235
▁꽝이다	-14236
▁끈어져	-14237
▁끈을놓	-14238
▁끊기지	-14239
▁끊기질	-14240
▁나간대	-14241
▁나름이	-14242
▁나름일	-14243
▁나빼고	-14244
▁나에겐	-14245
▁낙엽밟	-14246
▁난처한	-14247
▁남긴다	-14248
▁낫네여	-14249
▁낮술먹	-14250
▁내꺼야	-14251
▁내장비	-14252
▁내편이	-14253
▁냉면만	-14254
▁네시에	-14255
▁높이려	-14256
▁놓을수	-14257
▁놔버린	-14258
▁뇌용량	-14259
▁누락된	-14260
▁누워만	-14261
▁다칠뻔	-14262
▁단점이	-14263
▁답변을	-14264
▁답프로	-14265
▁대쉬해	-14266
▁대신에	-14267
▁더생각	-14268
▁덧나나	-14269
▁데서도	-14270
▁도움되	-14271
▁돌싱남	-14272
▁돼있다	-14273
▁될런지	-14274
▁될지모	-14275
▁두렵네	-14276
▁뒤늦게	-14277
▁드러내	-14278
▁때였네	-14279
▁또시작	-14280
▁또오늘	-14281
▁똥마려	-14282
▁뚫는게	-14283
▁뜨끈한	-14284
▁렌즈를	-14285
▁만이냐	-14286
▁말들음	-14287
▁말만해	-14288
▁맴도는	-14289
▁맴돈다	-14290
▁멀미나	-14291
▁멈춰야	-14292
▁메리크	-14293
▁모의고	-14294
▁목아파	-14295
▁몰아쳐	-14296
▁몸매가	-14297
▁못가서	-14298
▁못난놈	-14299
▁라는말	-14300
▁못마시	-14301
▁못받앗	-14302
▁무난할	-14303
▁무방비	-14304
▁무사안	-14305
▁문화인	-14306
▁미루는	-14307
▁미인은	-14308
▁밉지가	-14309
▁바이러	-14310
▁반영되	-14311
▁발견할	-14312
▁발라드	-14313
▁밤늦게	-14314
▁밤샜어	-14315
▁밤이오	-14316
▁방금도	-14317
▁배신감	-14318
▁배신맞	-14319
▁뱃살이	-14320
▁버릇고	-14321
▁버릇을	-14322
▁번복되	-14323
▁벗겨져	-14324
▁베프가	-14325
▁베프를	-14326
▁별이진	-14327
▁보약도	-14328
▁봐주러	-14329
▁부질없	-14330
▁불렀어	-14331
▁불륜이	-14332
▁불만만	-14333
▁불순한	-14334
▁불쌍한	-14335
▁불효를	-14336
▁붙어잇	-14337
▁붙었대	-14338
▁붙여서	-14339
▁비추요	-14340
▁빌어줘	-14341
▁빡빡한	-14342
▁뺏긴거	-14343
▁뻐근해	-14344
▁뻔뻔해	-14345
▁뽀송뽀	-14346
▁뽑아줘	-14347
▁사무치	-14348
▁사수님	-14349
▁사수랑	-14350
▁사전뜻	-14351
▁사줘요	-14352
▁살던곳	-14353
▁살빼고	-14354
▁살았냐	-14355
▁새롭지	-14356
▁서글퍼	-14357
▁서러운	-14358
▁서먹해	-14359
▁선배랑	-14360
▁섭섭한	-14361
▁성급한	-14362
▁세달뒤	-14363
▁세달이	-14364
▁세탁기	-14365
▁세포를	-14366
▁소모는	-14367
▁소용이	-14368
▁손발이	-14369
▁숏컷트	-14370
▁수수한	-14371
▁수순을	-14372
▁숙취해	-14373
▁숫자씩	-14374
▁쉬마려	-14375
▁스노우	-14376
▁스케줄	-14377
▁승진함	-14378
▁시절엔	-14379
▁시켰어	-14380
▁식욕이	-14381
▁신입이	-14382
▁실패할	-14383
▁심남이	-14384
▁심장은	-14385
▁심정에	-14386
▁싸야돼	-14387
▁싸운다	-14388
▁싸웠다	-14389
▁쌈인지	-14390
▁쌓여가	-14391
▁쌓이기	-14392
▁썩었어	-14393
▁쓰디쓰	-14394
▁쓰디쓴	-14395
▁쓰일만	-14396
▁씨씨야	-14397
▁아끼는	-14398
▁아끼지	-14399
한번도	-14400
한번만	-14401
▁감싸는	-14402
▁개념도	-14403
▁격려가	-14404
▁골랐어	-14405
▁괴로우	-14406
▁구속과	-14407
▁기뻐해	-14408
▁꼼꼼해	-14409
▁꿈같고	-14410
▁끓여서	-14411
▁끝낼까	-14412
▁나날들	-14413
▁낚시를	-14414
▁높아질	-14415
▁능력치	-14416
▁늦잠잤	-14417
▁먹으래	-14418
▁모쏠도	-14419
▁모임에	-14420
▁모임이	-14421
▁무한반	-14422
▁미칠꺼	-14423
▁바꼈어	-14424
▁방문사	-14425
▁불금에	-14426
▁불금이	-14427
▁빠졌죠	-14428
▁사탕을	-14429
▁손해인	-14430
▁숨막히	-14431
▁시도때	-14432
▁심어준	-14433
▁아마도	-14434
▁아부도	-14435
▁아부쟁	-14436
▁아자아	-14437
▁아팠던	-14438
▁안고쳐	-14439
▁안된거	-14440
▁안될거	-14441
▁안보낼	-14442
▁안열려	-14443
▁안잊혀	-14444
▁안주나	-14445
▁애기봐	-14446
▁애써봐	-14447
▁애초에	-14448
▁앱에서	-14449
▁양말에	-14450
▁어딘가	-14451
▁어째야	-14452
▁얼어죽	-14453
▁얼었나	-14454
▁엇갈림	-14455
▁여부인	-14456
▁연상녀	-14457
▁연하가	-14458
▁열받어	-14459
▁엿같은	-14460
▁엿먹일	-14461
▁예능도	-14462
▁예를들	-14463
▁예비신	-14464
▁예쁠까	-14465
▁옛여자	-14466
▁오바임	-14467
▁와닿네	-14468
▁와닿는	-14469
▁왜그랬	-14470
▁왜그런	-14471
▁우습게	-14472
▁우습네	-14473
▁웃긴건	-14474
▁웃는척	-14475
▁원두커	-14476
▁위안이	-14477
▁위축돼	-14478
▁위통이	-14479
▁이감정	-14480
▁이래라	-14481
▁이마야	-14482
▁이무슨	-14483
▁이쁘고	-14484
▁이쁘다	-14485
▁이틀전	-14486
▁이틀째	-14487
▁인상깊	-14488
▁인상해	-14489
▁일기쓰	-14490
▁일반화	-14491
▁일인줄	-14492
▁일일일	-14493
▁입맛이	-14494
▁있더군	-14495
▁잊기싫	-14496
▁자금도	-14497
▁자들의	-14498
▁자르지	-14499
▁끼고	-14500
▁밟는	-14501
▁썩은	-14502
▁왠수	-14503
▁켜고	-14504
▁쿨한	-14505
▁팀장	-14506
▁퍼즐	-14507
▁훈남	-14508
▁훈녀	-14509
거였나	-14510
나가도	-14511
노래가	-14512
싶은거	-14513
쏟아져	-14514
오를까	-14515
왔네ᅲ	-14516
▁깨우는	-14517
▁날ᄏᄏ	-14518
▁너와의	-14519
▁놓으려	-14520
▁뉴게임	-14521
▁다갔네	-14522
▁다쏟아	-14523
▁레고가	-14524
▁맞았네	-14525
▁먹은거	-14526
▁뭐있나	-14527
▁보았네	-14528
▁보였나	-14529
▁복나가	-14530
▁살았네	-14531
▁살았다	-14532
▁삼다리	-14533
▁새롭게	-14534
▁싸웠을	-14535
▁않으며	-14536
▁엮이는	-14537
▁왠수지	-14538
▁웃으며	-14539
▁자식방	-14540
▁잘라야	-14541
▁잘맞아	-14542
▁잠들고	-14543
▁잡담할	-14544
▁잡히네	-14545
▁잼있어	-14546
▁저장명	-14547
▁저장할	-14548
▁저편에	-14549
▁적당해	-14550
▁정량이	-14551
▁제약이	-14552
▁제정신	-14553
▁종지부	-14554
▁죄송해	-14555
▁주니깐	-14556
▁주사는	-14557
▁주절주	-14558
▁주차할	-14559
▁주체할	-14560
▁줬다고	-14561
▁증거도	-14562
▁지겹네	-14563
▁지고있	-14564
▁지속할	-14565
▁지친걸	-14566
▁지친듯	-14567
▁지침서	-14568
▁직업이	-14569
▁직후로	-14570
▁질리나	-14571
▁질문함	-14572
▁짠한건	-14573
▁짬뽕이	-14574
▁짰다고	-14575
▁짱좋아	-14576
▁쪘나봐	-14577
▁쪽팔려	-14578
▁찢어지	-14579
▁차려야	-14580
▁차버린	-14581
▁착잡한	-14582
▁찬물만	-14583
▁찰랑거	-14584
▁참을만	-14585
▁찾은게	-14586
▁챘을까	-14587
▁처방전	-14588
▁천국과	-14589
▁첫눈이	-14590
▁초조해	-14591
▁초초해	-14592
▁최저시	-14593
▁추스린	-14594
▁치킨집	-14595
▁친군가	-14596
▁침묵이	-14597
▁카풀로	-14598
▁컴퓨터	-14599
▁텀이	-14600
▁영역에	-14601
▁초반에	-14602
▁켜놓고	-14603
▁켜면서	-14604
▁쿨하지	-14605
▁키스함	-14606
▁타로점	-14607
▁타봤어	-14608
▁탁월한	-14609
▁탄생을	-14610
▁탄생의	-14611
▁태몽꾼	-14612
▁태몽꿨	-14613
▁태연한	-14614
▁태연히	-14615
▁토닥여	-14616
▁통장잔	-14617
▁통했나	-14618
▁툭하면	-14619
▁특히나	-14620
▁티조차	-14621
▁팀장님	-14622
▁팔길래	-14623
▁팔뚝살	-14624
▁팔찌나	-14625
▁퍼붓고	-14626
▁퍼주는	-14627
▁표정만	-14628
▁풀리곤	-14629
▁풍부한	-14630
▁하객룩	-14631
▁하려는	-14632
▁하품이	-14633
▁학용품	-14634
▁한약은	-14635
▁한켠엔	-14636
▁할꺼야	-14637
▁할말이	-14638
▁할지말	-14639
▁해달래	-14640
▁해봐야	-14641
▁했기에	-14642
▁향기에	-14643
▁허락을	-14644
▁헌신짝	-14645
▁헛소리	-14646
▁현타가	-14647
▁호구로	-14648
▁호칭은	-14649
▁호칭을	-14650
▁호칭이	-14651
▁화살에	-14652
▁화살은	-14653
▁환경이	-14654
▁회의감	-14655
▁효도에	-14656
▁훈훈해	-14657
▁휘둘려	-14658
▁흑기사	-14659
감았더니	-14660
개버리네	-14661
거리네여	-14662
걸리겠어	-14663
결정권이	-14664
고있는게	-14665
고있는데	-14666
그런건가	-14667
끝이겟죠	-14668
나는새끼	-14669
났을까요	-14670
년하고도	-14671
는데ᄏᄏ	-14672
는정말싫	-14673
다녀와서	-14674
달반정도	-14675
당했다는	-14676
돌이라서	-14677
된다는것	-14678
러기라던	-14679
러웠으면	-14680
려보셨어	-14681
리했다면	-14682
마음일까	-14683
만하던게	-14684
먹을수록	-14685
메이크업	-14686
바구니까	-14687
받았다고	-14688
버리겠네	-14689
버리겠다	-14690
보고싶네	-14691
보네ᄏᄏ	-14692
보렵니다	-14693
보지못한	-14694
본적있나	-14695
생각나네	-14696
생각인지	-14697
성노래가	-14698
소에서의	-14699
우울해	-14700
▁왕따된	-14701
▁왕따야	-14702
▁욕심쟁	-14703
▁육아를	-14704
▁육아에	-14705
▁육아휴	-14706
▁의견을	-14707
▁이것뿐	-14708
▁이쁜데	-14709
▁전역할	-14710
▁조용한	-14711
▁조카들	-14712
▁증오가	-14713
▁지키는	-14714
▁차갑나	-14715
▁참아내	-14716
▁참아오	-14717
▁책임을	-14718
▁치맥먹	-14719
▁치열한	-14720
▁치열해	-14721
▁치유는	-14722
▁평가할	-14723
▁평가해	-14724
▁표시를	-14725
▁필름이	-14726
▁합격을	-14727
될것같아	-14728
스런이별	-14729
신차단의	-14730
신청했어	-14731
싫어졌어	-14732
아는데도	-14733
안나오네	-14734
안오겠죠	-14735
어린왕자	-14736
언부탁드	-14737
여주거나	-14738
였다는걸	-14739
오르지는	-14740
오를수도	-14741
오셨어요	-14742
울컥하네	-14743
으신가요	-14744
은것같아	-14745
은지금대	-14746
이야기가	-14747
인테리어	-14748
있으신가	-14749
잊고싶고	-14750
잊은것같	-14751
잊혀지려	-14752
장하겠어	-14753
적일수록	-14754
져서인지	-14755
주일됐어	-14756
중적인데	-14757
줘야해서	-14758
지셨군요	-14759
지셨나요	-14760
지여행이	-14761
지우는게	-14762
질때까지	-14763
찌보낼지	-14764
칠꺼같네	-14765
커플이야	-14766
프했네요	-14767
하신가요	-14768
하자마자	-14769
하지마요	-14770
해보려고	-14771
해줬더니	-14772
해지지못	-14773
해집니다	-14774
했던거니	-14775
헤어지게	-14776
히도노력	-14777
▁1000	-14778
▁gogo	-14779
▁가까웠던	-14780
▁가라앉았	-14781
▁가벼웠던	-14782
▁가봤는데	-14783
▁가운데서	-14784
▁가입할까	-14785
▁가지마요	-14786
▁가출할까	-14787
▁가출해도	-14788
▁가치조차	-14789
▁간당간당	-14790
▁간지러워	-14791
▁갈구는게	-14792
▁갈등하고	-14793
▁감미로워	-14794
▁감수성이	-14795
▁감추는게	-14796
▁갔다올게	-14797
▁강요하지	-14798
▁강해지고	-14799
▁가득한	-14800
▁가을이	-14801
▁감당할	-14802
▁것들로	-14803
▁공감되	-14804
▁관련된	-14805
▁깜빡거	-14806
▁깜빡깜	-14807
▁나누고	-14808
▁나빠졌	-14809
▁나빠질	-14810
▁낭비일	-14811
▁넘어갔	-14812
▁넘어질	-14813
▁느낀게	-14814
▁단호한	-14815
▁대답해	-14816
▁대우가	-14817
▁대우를	-14818
▁대체왜	-14819
▁떠났네	-14820
▁망가질	-14821
▁몇일에	-14822
▁부부밥	-14823
▁분노만	-14824
▁분들께	-14825
▁서류도	-14826
▁성적표	-14827
▁슬픔이	-14828
▁실례를	-14829
▁싸움중	-14830
▁아물지	-14831
▁안가져	-14832
▁않으셨	-14833
▁연휴가	-14834
▁연휴도	-14835
▁전세집	-14836
▁가려질까	-14837
▁감당하기	-14838
▁같기도해	-14839
▁같았으면	-14840
▁개당황했	-14841
▁갠톡하는	-14842
▁갠톡하면	-14843
▁거였겠지	-14844
▁거의안나	-14845
▁걱정된다	-14846
▁걸레질도	-14847
▁걸렸나봐	-14848
▁걸렸지만	-14849
▁겁이나고	-14850
▁겪었네요	-14851
▁견뎌내길	-14852
▁견디고있	-14853
▁경과보고	-14854
▁경우에만	-14855
▁경제력도	-14856
▁계셨나요	-14857
▁계약하는	-14858
▁고구마만	-14859
▁고민된다	-14860
▁고치겠어	-14861
▁고치도록	-14862
▁공간부터	-14863
▁공감되곤	-14864
▁공복이면	-14865
▁공부할껄	-14866
▁공원이나	-14867
▁공유할까	-14868
▁과거속에	-14869
▁관심있을	-14870
▁괘씸하고	-14871
▁괘씸하니	-14872
▁괴로워요	-14873
▁구걸하듯	-14874
▁구남친을	-14875
▁구매했어	-14876
▁구별하는	-14877
▁구분짓기	-14878
▁구워야지	-14879
▁구질구질	-14880
▁군인이라	-14881
▁궁금할법	-14882
▁귀찮게해	-14883
▁그런거니	-14884
▁그런거래	-14885
▁그렸으면	-14886
▁그리웠나	-14887
▁그만두기	-14888
▁그만두는	-14889
▁그만두지	-14890
▁그분과의	-14891
▁그에게서	-14892
▁그지같은	-14893
▁근교에서	-14894
▁기다림이	-14895
▁기름값이	-14896
▁기부했어	-14897
▁기뻐해줬	-14898
▁기술보단	-14899
▁낳기	-14900
▁낼까	-14901
▁닫을	-14902
▁묻노	-14903
▁밖은	-14904
▁엉망	-14905
각관계	-14906
관관계	-14907
년만나	-14908
술한잔	-14909
였던게	-14910
전화가	-14911
▁200	-14912
▁가늠도	-14913
▁가늠할	-14914
▁개거지	-14915
▁그쪽은	-14916
▁꽃선물	-14917
▁끊겼다	-14918
▁	-14919
.	-14920
요	-14921
이	-14922
어	-14923
는	-14924
하	-14925
아	-14926
가	-14927
지	-14928
다	-14929
해	-14930
고	-14931
세	-14932
을	-14933
나	-14934
사	-14935
보	-14936
도	-14937
거	-14938
게	-14939
좋	-14940
에	-14941
자	-14942
있	-14943
은	-14944
기	-14945
면	-14946
한	-14947
까	-14948
?	-14949
네	-14950
만	-14951
니	-14952
데	-14953
마	-14954
랑	-14955
예	-14956
서	-14957
그	-14958
겠	-14959
로	-14960
시	-14961
리	-14962
들	-14963
람	-14964
생	-14965
인	-14966
무	-14967
라	-14968
일	-14969
수	-14970
야	-14971
같	-14972
남	-14973
안	-14974
할	-14975
친	-14976
정	-14977
연	-14978
를	-14979
구	-14980
으	-14981
말	-14982
여	-14983
주	-14984
내	-14985
봐	-14986
의	-14987
죠	-14988
음	-14989
없	-14990
싶	-14991
각	-14992
제	-14993
신	-14994
것	-14995
려	-14996
오	-14997
잘	-14998
힘	-14999
너	-15000
대	-15001
상	-15002
간	-15003
많	-15004
별	-15005
더	-15006
바	-15007
않	-15008
했	-15009
스	-15010
진	-15011
부	-15012
되	-15013
애	-15014
전	-15015
드	-15016
락	-15017
었	-15018
건	-15019
저	-15020
때	-15021
모	-15022
헤	-15023
금	-15024
중	-15025
심	-15026
짝	-15027
운	-15028
화	-15029
길	-15030
썸	-15031
혼	-15032
비	-15033
워	-15034
못	-15035
러	-15036
장	-15037
물	-15038
미	-15039
적	-15040
분	-15041
알	-15042
감	-15043
먹	-15044
히	-15045
걸	-15046
습	-15047
래	-15048
당	-15049
우	-15050
받	-15051
테	-15052
행	-15053
결	-15054
소	-15055
선	-15056
달	-15057
날	-15058
르	-15059
직	-15060
좀	-15061
후	-15062
살	-15063
조	-15064
회	-15065
관	-15066
!	-15067
늘	-15068
았	-15069
타	-15070
돼	-15071
든	-15072
방	-15073
될	-15074
동	-15075
녀	-15076
실	-15077
복	-15078
차	-15079
과	-15080
질	-15081
뭐	-15082
른	-15083
찮	-15084
공	-15085
와	-15086
트	-15087
끝	-15088
괜	-15089
속	-15090
원	-15091
계	-15092
처	-15093
치	-15094
필	-15095
잊	-15096
두	-15097
집	-15098
문	-15099
귀	-15100
유	-15101
편	-15102
난	-15103
준	-15104
재	-15105
졌	-15106
경	-15107
런	-15108
던	-15109
답	-15110
줄	-15111
성	-15112
울	-15113
피	-15114
왜	-15115
년	-15116
렇	-15117
식	-15118
떻	-15119
느	-15120
꾸	-15121
볼	-15122
져	-15123
개	-15124
위	-15125
버	-15126
왔	-15127
떨	-15128
입	-15129
현	-15130
작	-15131
배	-15132
번	-15133
노	-15134
눈	-15135
새	-15136
맞	-15137
언	-15138
추	-15139
났	-15140
짜	-15141
또	-15142
법	-15143
잠	-15144
프	-15145
올	-15146
단	-15147
민	-15148
참	-15149
함	-15150
쓰	-15151
학	-15152
디	-15153
따	-15154
싫	-15155
력	-15156
줘	-15157
확	-15158
반	-15159
찾	-15160
겨	-15161
변	-15162
잡	-15163
담	-15164
쉬	-15165
억	-15166
카	-15167
능	-15168
점	-15169
갈	-15170
터	-15171
먼	-15172
얼	-15173
합	-15174
근	-15175
용	-15176
통	-15177
매	-15178
표	-15179
놀	-15180
술	-15181
천	-15182
절	-15183
레	-15184
련	-15185
백	-15186
누	-15187
럴	-15188
돌	-15189
머	-15190
불	-15191
맛	-15192
루	-15193
릴	-15194
발	-15195
긴	-15196
몰	-15197
호	-15198
듯	-15199
움	-15200
봅	-15201
꿈	-15202
충	-15203
랄	-15204
교	-15205
막	-15206
톡	-15207
청	-15208
파	-15209
약	-15210
접	-15211
증	-15212
영	-15213
돈	-15214
1	-15215
군	-15216
됐	-15217
취	-15218
싸	-15219
월	-15220
젠	-15221
큼	-15222
강	-15223
놓	-15224
닌	-15225
명	-15226
빠	-15227
째	-15228
곳	-15229
된	-15230
랍	-15231
외	-15232
떠	-15233
망	-15234
쁜	-15235
택	-15236
겼	-15237
믿	-15238
순	-15239
쉽	-15240
크	-15241
걱	-15242
국	-15243
임	-15244
갑	-15245
께	-15246
름	-15247
커	-15248
2	-15249
씩	-15250
업	-15251
맘	-15252
셨	-15253
앞	-15254
축	-15255
키	-15256
럽	-15257
였	-15258
온	-15259
,	-15260
열	-15261
폰	-15262
황	-15263
짐	-15264
설	-15265
휴	-15266
냥	-15267
슨	-15268
침	-15269
텐	-15270
뭘	-15271
쁘	-15272
슬	-15273
3	-15274
떤	-15275
럼	-15276
님	-15277
엄	-15278
궁	-15279
렸	-15280
최	-15281
허	-15282
켜	-15283
혀	-15284
착	-15285
쳐	-15286
출	-15287
태	-15288
양	-15289
격	-15290
족	-15291
험	-15292
급	-15293
록	-15294
잔	-15295
깨	-15296
존	-15297
포	-15298
갔	-15299
늦	-15300
린	-15301
환	-15302
즐	-15303
픈	-15304
형	-15305
ᅲ	-15306
몸	-15307
죽	-15308
체	-15309
떡	-15310
본	-15311
벌	-15312
책	-15313
극	-15314
냐	-15315
덜	-15316
산	-15317
종	-15318
챙	-15319
풀	-15320
목	-15321
써	-15322
첫	-15323
넘	-15324
플	-15325
란	-15326
항	-15327
멋	-15328
완	-15329
찍	-15330
티	-15331
낌	-15332
뿐	-15333
팅	-15334
향	-15335
붙	-15336
밥	-15337
셔	-15338
웃	-15339
견	-15340
응	-15341
초	-15342
활	-15343
글	-15344
손	-15345
평	-15346
끔	-15347
꼭	-15348
맨	-15349
숙	-15350
씨	-15351
폭	-15352
흘	-15353
즘	-15354
큰	-15355
탈	-15356
0	-15357
굴	-15358
뜻	-15359
줬	-15360
투	-15361
~	-15362
욕	-15363
짓	-15364
낼	-15365
닐	-15366
색	-15367
씀	-15368
곤	-15369
둘	-15370
봤	-15371
빨	-15372
뻐	-15373
뭔	-15374
솔	-15375
페	-15376
5	-15377
슴	-15378
풍	-15379
메	-15380
밀	-15381
코	-15382
꽃	-15383
병	-15384
척	-15385
냈	-15386
딱	-15387
똑	-15388
몇	-15389
졸	-15390
핸	-15391
껴	-15392
밤	-15393
며	-15394
벽	-15395
4	-15396
픔	-15397
독	-15398
찬	-15399
쳤	-15400
갖	-15401
듣	-15402
랐	-15403
림	-15404
옷	-15405
덤	-15406
밌	-15407
랜	-15408
승	-15409
역	-15410
짧	-15411
퇴	-15412
괴	-15413
끊	-15414
밖	-15415
봄	-15416
쓸	-15417
익	-15418
칭	-15419
핑	-15420
S	-15421
뒤	-15422
빼	-15423
펴	-15424
흐	-15425
6	-15426
꺼	-15427
료	-15428
박	-15429
베	-15430
빌	-15431
숨	-15432
악	-15433
칠	-15434
웠	-15435
흔	-15436
끼	-15437
얘	-15438
엇	-15439
깐	-15440
녕	-15441
득	-15442
렵	-15443
롭	-15444
렀	-15445
멀	-15446
깊	-15447
뎌	-15448
춰	-15449
케	-15450
곧	-15451
골	-15452
낫	-15453
석	-15454
높	-15455
삶	-15456
읽	-15457
잖	-15458
찌	-15459
채	-15460
헷	-15461
념	-15462
등	-15463
멍	-15464
숭	-15465
염	-15466
킨	-15467
퍼	-15468
꼬	-15469
냉	-15470
철	-15471
s	-15472
겁	-15473
꿨	-15474
뜨	-15475
벗	-15476
창	-15477
탁	-15478
끄	-15479
맥	-15480
섭	-15481
쇼	-15482
쩌	-15483
쯤	-15484
판	-15485
꿀	-15486
덧	-15487
션	-15488
십	-15489
클	-15490
특	-15491
ᄒ	-15492
덕	-15493
북	-15494
센	-15495
옆	-15496
팔	-15497
효	-15498
랬	-15499
례	-15500
립	-15501
뻔	-15502
엔	-15503
쟁	-15504
쩔	-15505
틀	-15506
틱	-15507
품	-15508
헛	-15509
ᅮ	-15510
김	-15511
깝	-15512
꿔	-15513
놈	-15514
딩	-15515
류	-15516
밍	-15517
삼	-15518
콩	-15519
패	-15520
희	-15521
권	-15522
냄	-15523
멈	-15524
싱	-15525
쌓	-15526
육	-15527
낭	-15528
땐	-15529
론	-15530
릿	-15531
삭	-15532
샀	-15533
엽	-15534
죄	-15535
즈	-15536
걷	-15537
놔	-15538
눠	-15539
됩	-15540
량	-15541
셀	-15542
턴	-15543
텨	-15544
토	-15545
획	-15546
귄	-15547
됨	-15548
브	-15549
뿌	-15550
액	-15551
7	-15552
N	-15553
깍	-15554
깔	-15555
뀌	-15556
녁	-15557
닥	-15558
벼	-15559
봇	-15560
웨	-15561
푸	-15562
혹	-15563
8	-15564
뀔	-15565
끈	-15566
뉴	-15567
뒷	-15568
듭	-15569
쐬	-15570
잤	-15571
흡	-15572
귈	-15573
긍	-15574
꼼	-15575
농	-15576
둬	-15577
딸	-15578
슷	-15579
썼	-15580
옴	-15581
컨	-15582
흥	-15583
갚	-15584
깜	-15585
끌	-15586
닫	-15587
렌	-15588
블	-15589
쓴	-15590
씹	-15591
왕	-15592
춥	-15593
콜	-15594
푹	-15595
ᄏ	-15596
걔	-15597
곰	-15598
규	-15599
낮	-15600
넌	-15601
넣	-15602
딴	-15603
뛰	-15604
링	-15605
뽑	-15606
씻	-15607
쪽	-15608
찰	-15609
춘	-15610
칼	-15611
컴	-15612
9	-15613
n	-15614
값	-15615
곁	-15616
깎	-15617
끗	-15618
낸	-15619
널	-15620
듬	-15621
렘	-15622
맙	-15623
몽	-15624
밝	-15625
봉	-15626
빛	-15627
빡	-15628
옥	-15629
잃	-15630
첩	-15631
콘	-15632
콤	-15633
탄	-15634
탔	-15635
헬	-15636
혔	-15637
겹	-15638
껏	-15639
꾹	-15640
닉	-15641
딪	-15642
랫	-15643
룩	-15644
뤄	-15645
맡	-15646
벚	-15647
빈	-15648
샤	-15649
앉	-15650
잇	-15651
탕	-15652
털	-15653
힌	-15654
'	-15655
검	-15656
낀	-15657
납	-15658
넓	-15659
녹	-15660
닮	-15661
둔	-15662
땀	-15663
땅	-15664
띄	-15665
롱	-15666
벤	-15667
엉	-15668
잼	-15669
짠	-15670
찔	-15671
콕	-15672
툰	-15673
팍	-15674
A	-15675
낄	-15676
늙	-15677
땡	-15678
뚝	-15679
렬	-15680
령	-15681
뢰	-15682
볶	-15683
빵	-15684
뻑	-15685
뽀	-15686
쁠	-15687
섬	-15688
씁	-15689
압	-15690
얻	-15691
왤	-15692
웬	-15693
젖	-15694
짱	-15695
킁	-15696
템	-15697
푼	-15698
햇	-15699
훈	-15700
객	-15701
곡	-15702
긋	-15703
꼈	-15704
꽤	-15705
끓	-15706
낙	-15707
낳	-15708
뒀	-15709
뜰	-15710
뱃	-15711
송	-15712
싼	-15713
쌩	-15714
앗	-15715
징	-15716
쩍	-15717
쪄	-15718
쪼	-15719
찼	-15720
춤	-15721
층	-15722
켠	-15723
탐	-15724
툴	-15725
휘	-15726
;	-15727
곱	-15728
광	-15729
궈	-15730
낚	-15731
눅	-15732
늠	-15733
닝	-15734
닿	-15735
돋	-15736
둠	-15737
둥	-15738
뒹	-15739
똥	-15740
롤	-15741
릎	-15742
묻	-15743
밑	-15744
밟	-15745
벅	-15746
범	-15747
쉴	-15748
슈	-15749
쌍	-15750
썹	-15751
쑥	-15752
옳	-15753
욱	-15754
젯	-15755
찜	-15756
찢	-15757
첨	-15758
퀴	-15759
톱	-15760
툼	-15761
틋	-15762
팩	-15763
팸	-15764
퓨	-15765
헥	-15766
흑	-15767
겟	-15768
긁	-15769
꾼	-15770
댈	-15771
렛	-15772
렜	-15773
률	-15774
릅	-15775
묵	-15776
볍	-15777
빚	-15778
쁨	-15779
삐	-15780
싹	-15781
쌈	-15782
쎄	-15783
쏟	-15784
쏠	-15785
씌	-15786
엮	-15787
왠	-15788
윗	-15789
쫄	-15790
쫌	-15791
찐	-15792
촉	-15793
츠	-15794
켰	-15795
쿨	-15796
탓	-15797
틈	-15798
팀	-15799
팠	-15800
폼	-15801
헌	-15802
홀	-15803
힐	-15804
B	-15805
C	-15806
a	-15807
갠	-15808
겪	-15809
굳	-15810
껄	-15811
꼰	-15812
꽉	-15813
넷	-15814
놨	-15815
댓	-15816
덥	-15817
딘	-15818
딛	-15819
떼	-15820
뚫	-15821
램	-15822
릇	-15823
맴	-15824
맷	-15825
맺	-15826
멘	-15827
몫	-15828
밉	-15829
빙	-15830
빴	-15831
샌	-15832
앨	-15833
엠	-15834
욜	-15835
웹	-15836
율	-15837
좌	-15838
줌	-15839
쥐	-15840
짚	-15841
짰	-15842
쭉	-15843
쭤	-15844
총	-15845
촬	-15846
컥	-15847
컷	-15848
컸	-15849
텁	-15850
텔	-15851
팁	-15852
팬	-15853
펑	-15854
풋	-15855
핫	-15856
훔	-15857
흠	-15858
-	-15859
갱	-15860
겉	-15861
겐	-15862
깰	-15863
꽝	-15864
꿰	-15865
넋	-15866
뇌	-15867
눌	-15868
눕	-15869
닷	-15870
댄	-15871
돕	-15872
됬	-15873
딜	-15874
땜	-15875
떴	-15876
뜬	-15877
띠	-15878
랖	-15879
랙	-15880
렐	-15881
렴	-15882
륵	-15883
몬	-15884
묘	-15885
샜	-15886
숫	-15887
썩	-15888
앱	-15889
얽	-15890
엊	-15891
엿	-15892
옵	-15893
왓	-15894
젤	-15895
졋	-15896
짼	-15897
측	-15898
캬	-15899
쿠	-15900
쿵	-15901
킬	-15902
턱	-15903
텀	-15904
텅	-15905
툭	-15906
헐	-15907
헹	-15908
홈	-15909
홧	-15910
%	-15911
D	-15912
O	-15913
P	-15914
X	-15915
c	-15916
g	-15917
o	-15918
걍	-15919
겜	-15920
괘	-15921
균	-15922
귤	-15923
깃	-15924
깅	-15925
깬	-15926
깼	-15927
꼴	-15928
꽂	-15929
꿩	-15930
넛	-15931
넥	-15932
넹	-15933
녔	-15934
논	-15935
뇨	-15936
눴	-15937
닦	-15938
닭	-15939
댔	-15940
덩	-15941
덮	-15942
뚱	-15943
띰	-15944
띵	-15945
랭	-15946
렉	-15947
룰	-15948
룸	-15949
룽	-15950
륜	-15951
릭	-15952
맹	-15953
뮤	-15954
밭	-15955
벨	-15956
볕	-15957
붓	-15958
뷔	-15959
빽	-15960
뺏	-15961
뻤	-15962
뽕	-15963
뿅	-15964
삔	-15965
샐	-15966
샘	-15967
섞	-15968
섣	-15969
섯	-15970
섰	-15971
섹	-15972
솜	-15973
쇠	-15974
숏	-15975
썰	-15976
쑤	-15977
씰	-15978
씸	-15979
얇	-15980
옛	-15981
옮	-15982
왼	-15983
웁	-15984
웽	-15985
윙	-15986
젊	-15987
젝	-15988
줍	-15989
쥬	-15990
즙	-15991
짤	-15992
짬	-15993
쨌	-15994
쪘	-15995
찡	-15996
찹	-15997
챘	-15998
쳇	-15999
